#include "magic_wand_model_data.h"

// We need to keep the data array aligned on some architectures.
#ifdef __has_attribute
#define HAVE_ATTRIBUTE(x) __has_attribute(x)
#else
#define HAVE_ATTRIBUTE(x) 0
#endif
#if HAVE_ATTRIBUTE(aligned) || (defined(__GNUC__) && !defined(__clang__))
#define DATA_ALIGN_ATTRIBUTE __attribute__((aligned(4)))
#else
#define DATA_ALIGN_ATTRIBUTE
#endif

const unsigned char g_magic_wand_model_data[] DATA_ALIGN_ATTRIBUTE = {
  0x1c, 0x00, 0x00, 0x00, 0x54, 0x46, 0x4c, 0x33, 0x14, 0x00, 0x20, 0x00,
  0x04, 0x00, 0x08, 0x00, 0x0c, 0x00, 0x10, 0x00, 0x14, 0x00, 0x00, 0x00,
  0x18, 0x00, 0x1c, 0x00, 0x14, 0x00, 0x00, 0x00, 0x03, 0x00, 0x00, 0x00,
  0x18, 0x00, 0x00, 0x00, 0x2c, 0x00, 0x00, 0x00, 0xd8, 0x00, 0x00, 0x00,
  0x2c, 0x00, 0x00, 0x00, 0x80, 0x00, 0x00, 0x00, 0x78, 0x00, 0x00, 0x00,
  0x05, 0x00, 0x00, 0x00, 0x28, 0x07, 0x00, 0x00, 0x44, 0x06, 0x00, 0x00,
  0xbc, 0x03, 0x00, 0x00, 0xf8, 0x02, 0x00, 0x00, 0xac, 0x01, 0x00, 0x00,
  0x01, 0x00, 0x00, 0x00, 0xd0, 0x00, 0x00, 0x00, 0x14, 0x00, 0x00, 0x00,
  0xdc, 0x32, 0x00, 0x00, 0xd8, 0x32, 0x00, 0x00, 0xd0, 0x31, 0x00, 0x00,
  0x1c, 0x31, 0x00, 0x00, 0x74, 0x30, 0x00, 0x00, 0xfc, 0x2f, 0x00, 0x00,
  0x90, 0x2f, 0x00, 0x00, 0x40, 0x13, 0x00, 0x00, 0xec, 0x11, 0x00, 0x00,
  0x10, 0x10, 0x00, 0x00, 0xb4, 0x07, 0x00, 0x00, 0xb0, 0x32, 0x00, 0x00,
  0xac, 0x32, 0x00, 0x00, 0xa8, 0x32, 0x00, 0x00, 0xa4, 0x32, 0x00, 0x00,
  0xa0, 0x32, 0x00, 0x00, 0x9c, 0x32, 0x00, 0x00, 0x98, 0x32, 0x00, 0x00,
  0x94, 0x32, 0x00, 0x00, 0x3c, 0x00, 0x00, 0x00, 0x00, 0x00, 0x00, 0x00,
  0x01, 0x00, 0x00, 0x00, 0x0c, 0x00, 0x00, 0x00, 0x08, 0x00, 0x0c, 0x00,
  0x04, 0x00, 0x08, 0x00, 0x08, 0x00, 0x00, 0x00, 0x08, 0x00, 0x00, 0x00,
  0x13, 0x00, 0x00, 0x00, 0x13, 0x00, 0x00, 0x00, 0x6d, 0x69, 0x6e, 0x5f,
  0x72, 0x75, 0x6e, 0x74, 0x69, 0x6d, 0x65, 0x5f, 0x76, 0x65, 0x72, 0x73,
  0x69, 0x6f, 0x6e, 0x00, 0xb6, 0xce, 0xff, 0xff, 0x04, 0x00, 0x00, 0x00,
  0x10, 0x00, 0x00, 0x00, 0x31, 0x2e, 0x35, 0x2e, 0x30, 0x00, 0x00, 0x00,
  0x00, 0x00, 0x00, 0x00, 0x00, 0x00, 0x00, 0x00, 0x0f, 0x00, 0x00, 0x00,
  0x4d, 0x4c, 0x49, 0x52, 0x20, 0x43, 0x6f, 0x6e, 0x76, 0x65, 0x72, 0x74,
  0x65, 0x64, 0x2e, 0x00, 0x00, 0x00, 0x0e, 0x00, 0x18, 0x00, 0x04, 0x00,
  0x08, 0x00, 0x0c, 0x00, 0x10, 0x00, 0x14, 0x00, 0x0e, 0x00, 0x00, 0x00,
  0x14, 0x00, 0x00, 0x00, 0x5c, 0x00, 0x00, 0x00, 0x60, 0x00, 0x00, 0x00,
  0x64, 0x00, 0x00, 0x00, 0x84, 0x00, 0x00, 0x00, 0x12, 0x00, 0x00, 0x00,
  0x9c, 0x31, 0x00, 0x00, 0x2c, 0x31, 0x00, 0x00, 0x88, 0x30, 0x00, 0x00,
  0xe0, 0x2f, 0x00, 0x00, 0x38, 0x2f, 0x00, 0x00, 0xd4, 0x2e, 0x00, 0x00,
  0x6c, 0x2e, 0x00, 0x00, 0x18, 0x12, 0x00, 0x00, 0xbc, 0x10, 0x00, 0x00,
  0xe0, 0x0e, 0x00, 0x00, 0x0c, 0x06, 0x00, 0x00, 0x28, 0x05, 0x00, 0x00,
  0xe8, 0x03, 0x00, 0x00, 0x3c, 0x03, 0x00, 0x00, 0x98, 0x02, 0x00, 0x00,
  0xd4, 0x01, 0x00, 0x00, 0x10, 0x01, 0x00, 0x00, 0x84, 0x00, 0x00, 0x00,
  0x01, 0x00, 0x00, 0x00, 0x00, 0x00, 0x00, 0x00, 0x01, 0x00, 0x00, 0x00,
  0x11, 0x00, 0x00, 0x00, 0x08, 0x00, 0x00, 0x00, 0x74, 0x05, 0x00, 0x00,
  0x94, 0x04, 0x00, 0x00, 0x78, 0x03, 0x00, 0x00, 0xbc, 0x02, 0x00, 0x00,
  0x30, 0x02, 0x00, 0x00, 0x50, 0x01, 0x00, 0x00, 0xa8, 0x00, 0x00, 0x00,
  0x10, 0x00, 0x00, 0x00, 0x04, 0x00, 0x00, 0x00, 0x6d, 0x61, 0x69, 0x6e,
  0x00, 0x00, 0x00, 0x00, 0x7a, 0xff, 0xff, 0xff, 0x00, 0x00, 0x00, 0x09,
  0x04, 0x00, 0x00, 0x00, 0x1c, 0x00, 0x00, 0x00, 0x10, 0x00, 0x00, 0x00,
  0x04, 0x00, 0x00, 0x00, 0xb2, 0xcf, 0xff, 0xff, 0x00, 0x00, 0x80, 0x3f,
  0x01, 0x00, 0x00, 0x00, 0x11, 0x00, 0x00, 0x00, 0x01, 0x00, 0x00, 0x00,
  0x10, 0x00, 0x00, 0x00, 0xa0, 0xfa, 0xff, 0xff, 0x19, 0x00, 0x00, 0x00,
  0x00, 0x00, 0x00, 0x19, 0x01, 0x00, 0x00, 0x00, 0x40, 0xcf, 0xff, 0xff,
  0x14, 0x00, 0x00, 0x00, 0x12, 0x00, 0x00, 0x00, 0x18, 0x00, 0x00, 0x00,
  0x30, 0x00, 0x00, 0x00, 0x20, 0x00, 0x00, 0x00, 0x02, 0x00, 0x00, 0x00,
  0x01, 0x00, 0x00, 0x00, 0x04, 0x00, 0x00, 0x00, 0x08, 0x00, 0x00, 0x00,
  0x49, 0x64, 0x65, 0x6e, 0x74, 0x69, 0x74, 0x79, 0x00, 0x00, 0x00, 0x00,
  0x02, 0x00, 0x00, 0x00, 0xff, 0xff, 0xff, 0xff, 0x04, 0x00, 0x00, 0x00,
  0x24, 0xd0, 0xff, 0xff, 0x00, 0x00, 0x0e, 0x00, 0x18, 0x00, 0x08, 0x00,
  0x0c, 0x00, 0x10, 0x00, 0x07, 0x00, 0x14, 0x00, 0x0e, 0x00, 0x00, 0x00,
  0x00, 0x00, 0x00, 0x08, 0x03, 0x00, 0x00, 0x00, 0x18, 0x00, 0x00, 0x00,
  0x0c, 0x00, 0x00, 0x00, 0x04, 0x00, 0x00, 0x00, 0x40, 0xcf, 0xff, 0xff,
  0x01, 0x00, 0x00, 0x00, 0x10, 0x00, 0x00, 0x00, 0x03, 0x00, 0x00, 0x00,
  0x0f, 0x00, 0x00, 0x00, 0x07, 0x00, 0x00, 0x00, 0x04, 0x00, 0x00, 0x00,
  0xc8, 0xcf, 0xff, 0xff, 0x14, 0x00, 0x00, 0x00, 0x11, 0x00, 0x00, 0x00,
  0x18, 0x00, 0x00, 0x00, 0x5c, 0x00, 0x00, 0x00, 0x4c, 0x00, 0x00, 0x00,
  0x02, 0x00, 0x00, 0x00, 0x01, 0x00, 0x00, 0x00, 0x04, 0x00, 0x00, 0x00,
  0x34, 0x00, 0x00, 0x00, 0x73, 0x65, 0x71, 0x75, 0x65, 0x6e, 0x74, 0x69,
  0x61, 0x6c, 0x2f, 0x64, 0x65, 0x6e, 0x73, 0x65, 0x5f, 0x31, 0x2f, 0x4d,
  0x61, 0x74, 0x4d, 0x75, 0x6c, 0x3b, 0x73, 0x65, 0x71, 0x75, 0x65, 0x6e,
  0x74, 0x69, 0x61, 0x6c, 0x2f, 0x64, 0x65, 0x6e, 0x73, 0x65, 0x5f, 0x31,
  0x2f, 0x42, 0x69, 0x61, 0x73, 0x41, 0x64, 0x64, 0x00, 0x00, 0x00, 0x00,
  0x02, 0x00, 0x00, 0x00, 0xff, 0xff, 0xff, 0xff, 0x04, 0x00, 0x00, 0x00,
  0xc8, 0xcf, 0xff, 0xff, 0xda, 0xfc, 0xff, 0xff, 0x00, 0x00, 0x00, 0x08,
  0x03, 0x00, 0x00, 0x00, 0x24, 0x00, 0x00, 0x00, 0x18, 0x00, 0x00, 0x00,
  0x0c, 0x00, 0x00, 0x00, 0x00, 0x00, 0x06, 0x00, 0x08, 0x00, 0x07, 0x00,
  0x06, 0x00, 0x00, 0x00, 0x00, 0x00, 0x00, 0x01, 0x01, 0x00, 0x00, 0x00,
  0x0f, 0x00, 0x00, 0x00, 0x03, 0x00, 0x00, 0x00, 0x0e, 0x00, 0x00, 0x00,
  0x06, 0x00, 0x00, 0x00, 0x03, 0x00, 0x00, 0x00, 0xe8, 0xfb, 0xff, 0xff,
  0x09, 0x00, 0x00, 0x00, 0x00, 0x00, 0x00, 0x09, 0x01, 0x00, 0x00, 0x00,
  0x88, 0xd0, 0xff, 0xff, 0x14, 0x00, 0x00, 0x00, 0x10, 0x00, 0x00, 0x00,
  0x18, 0x00, 0x00, 0x00, 0x6c, 0x00, 0x00, 0x00, 0x5c, 0x00, 0x00, 0x00,
  0x02, 0x00, 0x00, 0x00, 0x01, 0x00, 0x00, 0x00, 0x10, 0x00, 0x00, 0x00,
  0x46, 0x00, 0x00, 0x00, 0x73, 0x65, 0x71, 0x75, 0x65, 0x6e, 0x74, 0x69,
  0x61, 0x6c, 0x2f, 0x64, 0x65, 0x6e, 0x73, 0x65, 0x2f, 0x4d, 0x61, 0x74,
  0x4d, 0x75, 0x6c, 0x3b, 0x73, 0x65, 0x71, 0x75, 0x65, 0x6e, 0x74, 0x69,
  0x61, 0x6c, 0x2f, 0x64, 0x65, 0x6e, 0x73, 0x65, 0x2f, 0x52, 0x65, 0x6c,
  0x75, 0x3b, 0x73, 0x65, 0x71, 0x75, 0x65, 0x6e, 0x74, 0x69, 0x61, 0x6c,
  0x2f, 0x64, 0x65, 0x6e, 0x73, 0x65, 0x2f, 0x42, 0x69, 0x61, 0x73, 0x41,
  0x64, 0x64, 0x00, 0x00, 0x02, 0x00, 0x00, 0x00, 0xff, 0xff, 0xff, 0xff,
  0x10, 0x00, 0x00, 0x00, 0xa8, 0xd1, 0xff, 0xff, 0x00, 0x00, 0x0a, 0x00,
  0x10, 0x00, 0x04, 0x00, 0x08, 0x00, 0x0c, 0x00, 0x0a, 0x00, 0x00, 0x00,
  0x02, 0x00, 0x00, 0x00, 0x10, 0x00, 0x00, 0x00, 0x04, 0x00, 0x00, 0x00,
  0x01, 0x00, 0x00, 0x00, 0x0e, 0x00, 0x00, 0x00, 0x02, 0x00, 0x00, 0x00,
  0x0d, 0x00, 0x00, 0x00, 0x05, 0x00, 0x00, 0x00, 0xa8, 0xfc, 0xff, 0xff,
  0x16, 0x00, 0x00, 0x00, 0x00, 0x00, 0x00, 0x16, 0x01, 0x00, 0x00, 0x00,
  0x48, 0xd1, 0xff, 0xff, 0x14, 0x00, 0x00, 0x00, 0x0f, 0x00, 0x00, 0x00,
  0x18, 0x00, 0x00, 0x00, 0x40, 0x00, 0x00, 0x00, 0x30, 0x00, 0x00, 0x00,
  0x02, 0x00, 0x00, 0x00, 0x01, 0x00, 0x00, 0x00, 0x70, 0x00, 0x00, 0x00,
  0x1a, 0x00, 0x00, 0x00, 0x73, 0x65, 0x71, 0x75, 0x65, 0x6e, 0x74, 0x69,
  0x61, 0x6c, 0x2f, 0x66, 0x6c, 0x61, 0x74, 0x74, 0x65, 0x6e, 0x2f, 0x52,
  0x65, 0x73, 0x68, 0x61, 0x70, 0x65, 0x00, 0x00, 0x02, 0x00, 0x00, 0x00,
  0xff, 0xff, 0xff, 0xff, 0x70, 0x00, 0x00, 0x00, 0x2c, 0xd1, 0xff, 0xff,
  0x3e, 0xfe, 0xff, 0xff, 0x00, 0x00, 0x00, 0x05, 0x01, 0x00, 0x00, 0x00,
  0x38, 0x00, 0x00, 0x00, 0x2c, 0x00, 0x00, 0x00, 0x14, 0x00, 0x00, 0x00,
  0x00, 0x00, 0x0e, 0x00, 0x14, 0x00, 0x00, 0x00, 0x10, 0x00, 0x0c, 0x00,
  0x08, 0x00, 0x04, 0x00, 0x0e, 0x00, 0x00, 0x00, 0x03, 0x00, 0x00, 0x00,
  0x01, 0x00, 0x00, 0x00, 0x03, 0x00, 0x00, 0x00, 0x01, 0x00, 0x00, 0x00,
  0x01, 0x00, 0x00, 0x00, 0x0d, 0x00, 0x00, 0x00, 0x01, 0x00, 0x00, 0x00,
  0x0c, 0x00, 0x00, 0x00, 0xe8, 0xd1, 0xff, 0xff, 0x14, 0x00, 0x00, 0x00,
  0x0e, 0x00, 0x00, 0x00, 0x20, 0x00, 0x00, 0x00, 0x58, 0x00, 0x00, 0x00,
  0x40, 0x00, 0x00, 0x00, 0x04, 0x00, 0x00, 0x00, 0x01, 0x00, 0x00, 0x00,
  0x07, 0x00, 0x00, 0x00, 0x01, 0x00, 0x00, 0x00, 0x10, 0x00, 0x00, 0x00,
  0x22, 0x00, 0x00, 0x00, 0x73, 0x65, 0x71, 0x75, 0x65, 0x6e, 0x74, 0x69,
  0x61, 0x6c, 0x2f, 0x6d, 0x61, 0x78, 0x5f, 0x70, 0x6f, 0x6f, 0x6c, 0x69,
  0x6e, 0x67, 0x32, 0x64, 0x5f, 0x31, 0x2f, 0x4d, 0x61, 0x78, 0x50, 0x6f,
  0x6f, 0x6c, 0x00, 0x00, 0x04, 0x00, 0x00, 0x00, 0xff, 0xff, 0xff, 0xff,
  0x07, 0x00, 0x00, 0x00, 0x01, 0x00, 0x00, 0x00, 0x10, 0x00, 0x00, 0x00,
  0xe4, 0xd1, 0xff, 0xff, 0x1a, 0xfe, 0xff, 0xff, 0x00, 0x00, 0x00, 0x01,
  0x24, 0x00, 0x00, 0x00, 0x18, 0x00, 0x00, 0x00, 0x04, 0x00, 0x00, 0x00,
  0x0c, 0xfe, 0xff, 0xff, 0x01, 0x00, 0x00, 0x00, 0x01, 0x00, 0x00, 0x00,
  0x00, 0x00, 0x00, 0x01, 0x01, 0x00, 0x00, 0x00, 0x0c, 0x00, 0x00, 0x00,
  0x03, 0x00, 0x00, 0x00, 0x0b, 0x00, 0x00, 0x00, 0x09, 0x00, 0x00, 0x00,
  0x02, 0x00, 0x00, 0x00, 0x90, 0xd2, 0xff, 0xff, 0x14, 0x00, 0x00, 0x00,
  0x0d, 0x00, 0x00, 0x00, 0x20, 0x00, 0x00, 0x00, 0xb8, 0x00, 0x00, 0x00,
  0xa0, 0x00, 0x00, 0x00, 0x04, 0x00, 0x00, 0x00, 0x01, 0x00, 0x00, 0x00,
  0x15, 0x00, 0x00, 0x00, 0x01, 0x00, 0x00, 0x00, 0x10, 0x00, 0x00, 0x00,
  0x83, 0x00, 0x00, 0x00, 0x73, 0x65, 0x71, 0x75, 0x65, 0x6e, 0x74, 0x69,
  0x61, 0x6c, 0x2f, 0x63, 0x6f, 0x6e, 0x76, 0x32, 0x64, 0x5f, 0x31, 0x2f,
  0x52, 0x65, 0x6c, 0x75, 0x3b, 0x73, 0x65, 0x71, 0x75, 0x65, 0x6e, 0x74,
  0x69, 0x61, 0x6c, 0x2f, 0x63, 0x6f, 0x6e, 0x76, 0x32, 0x64, 0x5f, 0x31,
  0x2f, 0x42, 0x69, 0x61, 0x73, 0x41, 0x64, 0x64, 0x3b, 0x73, 0x65, 0x71,
  0x75, 0x65, 0x6e, 0x74, 0x69, 0x61, 0x6c, 0x2f, 0x63, 0x6f, 0x6e, 0x76,
  0x32, 0x64, 0x5f, 0x31, 0x2f, 0x43, 0x6f, 0x6e, 0x76, 0x32, 0x44, 0x3b,
  0x73, 0x65, 0x71, 0x75, 0x65, 0x6e, 0x74, 0x69, 0x61, 0x6c, 0x2f, 0x63,
  0x6f, 0x6e, 0x76, 0x32, 0x64, 0x5f, 0x31, 0x2f, 0x42, 0x69, 0x61, 0x73,
  0x41, 0x64, 0x64, 0x2f, 0x52, 0x65, 0x61, 0x64, 0x56, 0x61, 0x72, 0x69,
  0x61, 0x62, 0x6c, 0x65, 0x4f, 0x70, 0x2f, 0x72, 0x65, 0x73, 0x6f, 0x75,
  0x72, 0x63, 0x65, 0x00, 0x04, 0x00, 0x00, 0x00, 0xff, 0xff, 0xff, 0xff,
  0x15, 0x00, 0x00, 0x00, 0x01, 0x00, 0x00, 0x00, 0x10, 0x00, 0x00, 0x00,
  0xfc, 0xd3, 0xff, 0xff, 0x00, 0x00, 0x0e, 0x00, 0x1a, 0x00, 0x08, 0x00,
  0x0c, 0x00, 0x10, 0x00, 0x07, 0x00, 0x14, 0x00, 0x0e, 0x00, 0x00, 0x00,
  0x00, 0x00, 0x00, 0x05, 0x01, 0x00, 0x00, 0x00, 0x3c, 0x00, 0x00, 0x00,
  0x30, 0x00, 0x00, 0x00, 0x14, 0x00, 0x00, 0x00, 0x00, 0x00, 0x0e, 0x00,
  0x18, 0x00, 0x17, 0x00, 0x10, 0x00, 0x0c, 0x00, 0x08, 0x00, 0x04, 0x00,
  0x0e, 0x00, 0x00, 0x00, 0x03, 0x00, 0x00, 0x00, 0x03, 0x00, 0x00, 0x00,
  0x03, 0x00, 0x00, 0x00, 0x03, 0x00, 0x00, 0x00, 0x00, 0x00, 0x00, 0x01,
  0x01, 0x00, 0x00, 0x00, 0x0b, 0x00, 0x00, 0x00, 0x01, 0x00, 0x00, 0x00,
  0x0a, 0x00, 0x00, 0x00, 0x2c, 0xff, 0xff, 0xff, 0x11, 0x00, 0x00, 0x00,
  0x00, 0x00, 0x00, 0x11, 0x01, 0x00, 0x00, 0x00, 0xcc, 0xd3, 0xff, 0xff,
  0x14, 0x00, 0x00, 0x00, 0x0c, 0x00, 0x00, 0x00, 0x20, 0x00, 0x00, 0x00,
  0x58, 0x00, 0x00, 0x00, 0x40, 0x00, 0x00, 0x00, 0x04, 0x00, 0x00, 0x00,
  0x01, 0x00, 0x00, 0x00, 0x15, 0x00, 0x00, 0x00, 0x01, 0x00, 0x00, 0x00,
  0x08, 0x00, 0x00, 0x00, 0x20, 0x00, 0x00, 0x00, 0x73, 0x65, 0x71, 0x75,
  0x65, 0x6e, 0x74, 0x69, 0x61, 0x6c, 0x2f, 0x6d, 0x61, 0x78, 0x5f, 0x70,
  0x6f, 0x6f, 0x6c, 0x69, 0x6e, 0x67, 0x32, 0x64, 0x2f, 0x4d, 0x61, 0x78,
  0x50, 0x6f, 0x6f, 0x6c, 0x00, 0x00, 0x00, 0x00, 0x04, 0x00, 0x00, 0x00,
  0xff, 0xff, 0xff, 0xff, 0x15, 0x00, 0x00, 0x00, 0x01, 0x00, 0x00, 0x00,
  0x08, 0x00, 0x00, 0x00, 0xd8, 0xd4, 0xff, 0xff, 0x00, 0x00, 0x0e, 0x00,
  0x14, 0x00, 0x00, 0x00, 0x08, 0x00, 0x0c, 0x00, 0x07, 0x00, 0x10, 0x00,
  0x0e, 0x00, 0x00, 0x00, 0x00, 0x00, 0x00, 0x01, 0x30, 0x00, 0x00, 0x00,
  0x24, 0x00, 0x00, 0x00, 0x10, 0x00, 0x00, 0x00, 0x0c, 0x00, 0x10, 0x00,
  0x00, 0x00, 0x04, 0x00, 0x08, 0x00, 0x0f, 0x00, 0x0c, 0x00, 0x00, 0x00,
  0x01, 0x00, 0x00, 0x00, 0x01, 0x00, 0x00, 0x00, 0x00, 0x00, 0x00, 0x01,
  0x01, 0x00, 0x00, 0x00, 0x0a, 0x00, 0x00, 0x00, 0x03, 0x00, 0x00, 0x00,
  0x00, 0x00, 0x00, 0x00, 0x08, 0x00, 0x00, 0x00, 0x01, 0x00, 0x00, 0x00,
  0x0c, 0x00, 0x10, 0x00, 0x0b, 0x00, 0x00, 0x00, 0x0c, 0x00, 0x04, 0x00,
  0x0c, 0x00, 0x00, 0x00, 0x03, 0x00, 0x00, 0x00, 0x00, 0x00, 0x00, 0x03,
  0x01, 0x00, 0x00, 0x00, 0xac, 0xd4, 0xff, 0xff, 0x14, 0x00, 0x00, 0x00,
  0x0b, 0x00, 0x00, 0x00, 0x20, 0x00, 0x00, 0x00, 0xb0, 0x00, 0x00, 0x00,
  0x98, 0x00, 0x00, 0x00, 0x04, 0x00, 0x00, 0x00, 0x01, 0x00, 0x00, 0x00,
  0x40, 0x00, 0x00, 0x00, 0x03, 0x00, 0x00, 0x00, 0x08, 0x00, 0x00, 0x00,
  0x7b, 0x00, 0x00, 0x00, 0x73, 0x65, 0x71, 0x75, 0x65, 0x6e, 0x74, 0x69,
  0x61, 0x6c, 0x2f, 0x63, 0x6f, 0x6e, 0x76, 0x32, 0x64, 0x2f, 0x52, 0x65,
  0x6c, 0x75, 0x3b, 0x73, 0x65, 0x71, 0x75, 0x65, 0x6e, 0x74, 0x69, 0x61,
  0x6c, 0x2f, 0x63, 0x6f, 0x6e, 0x76, 0x32, 0x64, 0x2f, 0x42, 0x69, 0x61,
  0x73, 0x41, 0x64, 0x64, 0x3b, 0x73, 0x65, 0x71, 0x75, 0x65, 0x6e, 0x74,
  0x69, 0x61, 0x6c, 0x2f, 0x63, 0x6f, 0x6e, 0x76, 0x32, 0x64, 0x2f, 0x43,
  0x6f, 0x6e, 0x76, 0x32, 0x44, 0x3b, 0x73, 0x65, 0x71, 0x75, 0x65, 0x6e,
  0x74, 0x69, 0x61, 0x6c, 0x2f, 0x63, 0x6f, 0x6e, 0x76, 0x32, 0x64, 0x2f,
  0x42, 0x69, 0x61, 0x73, 0x41, 0x64, 0x64, 0x2f, 0x52, 0x65, 0x61, 0x64,
  0x56, 0x61, 0x72, 0x69, 0x61, 0x62, 0x6c, 0x65, 0x4f, 0x70, 0x2f, 0x72,
  0x65, 0x73, 0x6f, 0x75, 0x72, 0x63, 0x65, 0x00, 0x04, 0x00, 0x00, 0x00,
  0xff, 0xff, 0xff, 0xff, 0x40, 0x00, 0x00, 0x00, 0x03, 0x00, 0x00, 0x00,
  0x08, 0x00, 0x00, 0x00, 0x00, 0xd5, 0xff, 0xff, 0x0a, 0xd6, 0xff, 0xff,
  0x04, 0x00, 0x00, 0x00, 0x00, 0x08, 0x00, 0x00, 0x56, 0x74, 0x9a, 0x3d,
  0xa2, 0x3b, 0x5c, 0x3b, 0x3e, 0x76, 0x94, 0x3b, 0x81, 0x7e, 0xb1, 0xbd,
  0x11, 0xb4, 0xa5, 0xbe, 0x28, 0x2c, 0x82, 0x3d, 0xd0, 0x9b, 0x44, 0x3d,
  0xc3, 0x41, 0x05, 0x3e, 0xf4, 0xaa, 0x0f, 0xbe, 0x1b, 0x68, 0xf8, 0x3d,
  0xb6, 0x05, 0x12, 0x3d, 0x80, 0x31, 0x0e, 0x3e, 0x65, 0x4c, 0x71, 0xbe,
  0x9f, 0xfc, 0x2d, 0xbe, 0x99, 0xc0, 0x15, 0x3c, 0x64, 0x1b, 0x8a, 0xbd,
  0x05, 0x45, 0xb4, 0xbd, 0x27, 0xf1, 0x8f, 0xbd, 0xba, 0xd9, 0x3d, 0x3d,
  0x6f, 0x3c, 0x11, 0xbd, 0x9e, 0xf1, 0x26, 0xbe, 0xcd, 0xb6, 0x72, 0x3d,
  0xa6, 0x9a, 0x93, 0xba, 0xce, 0xe8, 0x07, 0x3d, 0x73, 0x4e, 0xe4, 0xbd,
  0xc1, 0x89, 0xed, 0xbd, 0x02, 0xd1, 0x7f, 0xbd, 0x53, 0x95, 0x3f, 0xbe,
  0xd5, 0x94, 0x55, 0xbe, 0x35, 0x2e, 0x03, 0xbe, 0xbf, 0x19, 0x0e, 0xbe,
  0x20, 0x6f, 0x70, 0xbd, 0x75, 0xc0, 0x83, 0xbb, 0x1d, 0x4a, 0x63, 0x3e,
  0xa1, 0x4a, 0xe9, 0x3d, 0x5b, 0x47, 0xb9, 0x3e, 0xbd, 0xce, 0xb9, 0xbc,
  0x1f, 0x74, 0x33, 0x3e, 0x87, 0x50, 0x57, 0xbb, 0x77, 0xee, 0xf5, 0x3d,
  0x67, 0xfd, 0xa4, 0xbd, 0xd0, 0x81, 0x4e, 0xbd, 0xa3, 0x70, 0x95, 0x3c,
  0x08, 0xd3, 0x4f, 0xbe, 0xf9, 0x28, 0xfe, 0x3d, 0x8d, 0x4d, 0xa9, 0x3e,
  0x5c, 0xf1, 0x54, 0xbd, 0x36, 0x5b, 0x32, 0xbd, 0x83, 0x1d, 0x94, 0xbd,
  0xf2, 0xe8, 0x74, 0xbd, 0xc1, 0x5d, 0xd9, 0xbc, 0xa4, 0x24, 0x0c, 0xbd,
  0x8c, 0x61, 0x98, 0x3c, 0x23, 0xa3, 0x41, 0xbe, 0xf7, 0x8e, 0x80, 0xbd,
  0x30, 0xe3, 0x82, 0xbd, 0x52, 0x04, 0x09, 0xbd, 0xc3, 0xa7, 0x0c, 0xbe,
  0x51, 0x18, 0xb0, 0xbd, 0x22, 0xdf, 0x46, 0xbe, 0x0b, 0x15, 0x70, 0xbc,
  0x83, 0x4b, 0xc4, 0xbe, 0xc9, 0x91, 0x03, 0xbe, 0x6b, 0xa6, 0xf7, 0xbd,
  0xe7, 0xe9, 0x60, 0xbe, 0x56, 0xbb, 0x00, 0x3f, 0x04, 0xef, 0xa0, 0x3e,
  0x5e, 0x93, 0x2d, 0xbd, 0xe5, 0x88, 0x4d, 0x3e, 0x95, 0x24, 0x50, 0x3e,
  0xb8, 0x62, 0xdb, 0x3c, 0xce, 0x69, 0x1b, 0x3e, 0xf6, 0x1c, 0x49, 0xbe,
  0x58, 0x46, 0x91, 0xbe, 0xaa, 0x5e, 0x8c, 0xbd, 0xb2, 0x10, 0x94, 0xbe,
  0x1c, 0xe2, 0x89, 0x3d, 0xbe, 0xf3, 0xcd, 0xbe, 0xed, 0x8f, 0x21, 0xbe,
  0x3c, 0x5a, 0xd5, 0xbc, 0x28, 0x67, 0x13, 0xbe, 0x2e, 0x0b, 0xc2, 0xbe,
  0x80, 0xac, 0x2c, 0xbe, 0x9b, 0x76, 0x17, 0x3d, 0x64, 0x15, 0xaa, 0x3e,
  0x9f, 0x81, 0x9a, 0xbe, 0x9b, 0x4c, 0x9a, 0xbd, 0xe4, 0x4a, 0xee, 0xbd,
  0x7f, 0x06, 0x9c, 0x3e, 0xd5, 0xe6, 0xf3, 0xbe, 0x19, 0x88, 0x97, 0xbe,
  0xf2, 0xdf, 0x78, 0x3e, 0x63, 0x2a, 0x81, 0x3d, 0xf5, 0x9a, 0x67, 0xbd,
  0x49, 0x6e, 0xee, 0xbc, 0x11, 0x68, 0x58, 0xbe, 0x21, 0xaa, 0x1d, 0xbc,
  0x76, 0x7f, 0xc1, 0x3d, 0x04, 0x55, 0x70, 0xbe, 0x82, 0xfe, 0xf4, 0x3d,
  0x42, 0xc4, 0xa1, 0x3d, 0x1d, 0x12, 0x85, 0x3e, 0x9b, 0x28, 0xcb, 0xbe,
  0xbc, 0x5a, 0xa3, 0xbe, 0xd4, 0x32, 0x0d, 0xbe, 0x27, 0x44, 0xb0, 0xbe,
  0x8c, 0x9a, 0xed, 0xbe, 0xfc, 0xc5, 0xe0, 0x3e, 0x2b, 0x1b, 0x18, 0x3e,
  0x24, 0xd8, 0xec, 0x3e, 0xcb, 0xc8, 0x22, 0xbf, 0xa2, 0xe4, 0x2e, 0xbf,
  0xac, 0xb1, 0x11, 0xbd, 0xc1, 0xd4, 0xcb, 0xbd, 0xe4, 0x38, 0x5b, 0xbe,
  0xd3, 0x7a, 0x35, 0xbe, 0x48, 0xc6, 0x5e, 0x3e, 0x07, 0x43, 0x8f, 0xbc,
  0x08, 0xc8, 0x9c, 0xbe, 0x0f, 0xae, 0xb7, 0xbd, 0xea, 0xea, 0x1c, 0xbd,
  0x78, 0x73, 0xb7, 0x3d, 0xe5, 0x5f, 0xe4, 0xbd, 0xec, 0xfa, 0x8d, 0x3e,
  0xe8, 0x55, 0xb5, 0xbd, 0x2e, 0x31, 0x93, 0x3d, 0x0b, 0x2e, 0x55, 0xbd,
  0xe8, 0x97, 0x8a, 0x3e, 0x34, 0x06, 0x35, 0xbe, 0xf5, 0x86, 0xae, 0xbe,
  0x5e, 0xc9, 0x07, 0xbe, 0xde, 0x38, 0x3a, 0xbe, 0x46, 0x2d, 0x45, 0xbe,
  0x1a, 0x5c, 0x49, 0xbe, 0x19, 0xad, 0xbc, 0x3c, 0x20, 0x61, 0x52, 0xbe,
  0xe1, 0x2d, 0x82, 0x3d, 0x27, 0xc4, 0x20, 0xbe, 0x58, 0xec, 0x8e, 0x3e,
  0x48, 0x5e, 0x25, 0xbd, 0x53, 0x65, 0xa3, 0xbd, 0xb4, 0xc7, 0xe8, 0xbd,
  0x06, 0xac, 0x06, 0x3e, 0x80, 0x29, 0x81, 0xbc, 0xea, 0x77, 0xbe, 0xbb,
  0x7a, 0x38, 0x5e, 0x3d, 0xb3, 0x74, 0xbb, 0x3d, 0x11, 0x8c, 0x0d, 0xbe,
  0x7d, 0xdd, 0x75, 0xbe, 0xc9, 0x3a, 0x84, 0xbe, 0x0b, 0x8d, 0xd6, 0x3d,
  0x19, 0x8c, 0x2f, 0xbe, 0x93, 0x18, 0xf3, 0x3d, 0xab, 0xfc, 0x0d, 0xbe,
  0xd0, 0x49, 0x62, 0x3e, 0x17, 0x89, 0x59, 0x3d, 0xe8, 0x8f, 0x27, 0xbe,
  0x59, 0xa1, 0x98, 0xbe, 0x23, 0xf6, 0x5d, 0xbd, 0x35, 0x91, 0x1f, 0xbe,
  0x2f, 0x65, 0x37, 0xbd, 0x0c, 0xf0, 0x1c, 0xbe, 0x5d, 0x77, 0x11, 0xbe,
  0xa0, 0x23, 0x61, 0xbd, 0x57, 0x74, 0xbb, 0x3d, 0x5b, 0x7a, 0x11, 0xbe,
  0x95, 0x62, 0x37, 0xbd, 0xa3, 0x8b, 0xe6, 0xbd, 0xfc, 0x18, 0xa8, 0xbd,
  0xbd, 0xd6, 0x58, 0xbe, 0xf3, 0x4f, 0x39, 0xbe, 0x43, 0x43, 0x45, 0xbe,
  0xde, 0xf3, 0xeb, 0xbd, 0x52, 0x99, 0x00, 0xbe, 0xdd, 0xa9, 0xf6, 0xbd,
  0x37, 0xd2, 0x44, 0xbe, 0x53, 0xe4, 0x1a, 0x3c, 0xe2, 0xc9, 0xe1, 0xbd,
  0xd5, 0x9e, 0x9e, 0xbd, 0x7d, 0x5c, 0x61, 0xbe, 0x97, 0x3a, 0xab, 0x3e,
  0x3c, 0xe6, 0x91, 0xbd, 0xe2, 0xa5, 0x52, 0xbd, 0x4f, 0xbc, 0xc9, 0xbd,
  0xfc, 0x5e, 0x36, 0x3d, 0x3c, 0xde, 0xd0, 0x3e, 0xe9, 0x1d, 0x8e, 0x3e,
  0xe0, 0x5f, 0x92, 0x3d, 0x59, 0xbd, 0x92, 0x3e, 0x86, 0x42, 0x9f, 0x3d,
  0xcd, 0xf8, 0x17, 0x3e, 0x53, 0x86, 0x46, 0x3e, 0x07, 0xc2, 0x5e, 0xbe,
  0xc8, 0x3f, 0x59, 0x3e, 0xa7, 0x80, 0x02, 0x3e, 0x42, 0x7d, 0xec, 0x3d,
  0x1a, 0xc5, 0x0d, 0x3e, 0x2a, 0x5f, 0xe9, 0x3e, 0x2e, 0xfb, 0x44, 0x3d,
  0x08, 0xb8, 0x16, 0x3d, 0xaf, 0xff, 0x33, 0xbe, 0x65, 0xc5, 0xd5, 0xbd,
  0x02, 0x7f, 0xd1, 0xbd, 0x36, 0xb5, 0x63, 0xbe, 0xb0, 0x4c, 0x3e, 0x3c,
  0x83, 0x55, 0xa0, 0xbe, 0x99, 0x55, 0x18, 0xbe, 0x01, 0xb7, 0x05, 0xbe,
  0xde, 0xc7, 0xdd, 0x3d, 0x32, 0x99, 0xe7, 0xbd, 0xda, 0x34, 0x65, 0xbe,
  0x16, 0xbc, 0xcb, 0xbd, 0xf9, 0x09, 0x68, 0xbb, 0x30, 0xdb, 0xa6, 0x3b,
  0x18, 0x98, 0x07, 0xbe, 0xf3, 0x7c, 0xa8, 0x3b, 0xa7, 0x2c, 0x98, 0xbd,
  0x85, 0x20, 0xa7, 0x3d, 0x05, 0x6a, 0xc7, 0xbd, 0xf1, 0xc8, 0x6a, 0xbe,
  0x56, 0x70, 0x77, 0xbc, 0xa5, 0x9a, 0x6a, 0x3b, 0xdf, 0x81, 0xa5, 0xbd,
  0x47, 0x81, 0x67, 0xbd, 0x28, 0x42, 0x52, 0xbe, 0xfa, 0x58, 0x39, 0xbe,
  0x1b, 0xcf, 0x06, 0xbe, 0xb7, 0xd7, 0xb0, 0xbe, 0xd4, 0x1e, 0x12, 0x3f,
  0xa2, 0xa3, 0x21, 0xbe, 0xb7, 0x63, 0x51, 0xbe, 0xab, 0x1d, 0x5c, 0xbe,
  0x64, 0x1b, 0x05, 0xbe, 0x4e, 0x25, 0xb8, 0xbd, 0x2e, 0xf6, 0x13, 0x3e,
  0x2d, 0x13, 0xd0, 0x3b, 0xc9, 0x82, 0x0f, 0x3e, 0x91, 0x88, 0x2f, 0xbe,
  0xa9, 0x5a, 0x45, 0xbc, 0x89, 0x92, 0x4d, 0xbd, 0x53, 0x89, 0x76, 0xbe,
  0xfa, 0xeb, 0xb4, 0x3d, 0x05, 0x24, 0x70, 0xbc, 0xa0, 0x38, 0xa5, 0xbd,
  0xe9, 0xf8, 0x00, 0xbe, 0x2d, 0x88, 0x1b, 0xbe, 0x94, 0xc2, 0xcc, 0x3c,
  0x97, 0xcc, 0xb8, 0x3d, 0xca, 0x86, 0x4b, 0xbe, 0x36, 0xb5, 0x17, 0x3e,
  0x14, 0x60, 0xf7, 0x3d, 0x29, 0x83, 0x65, 0x3e, 0x88, 0xbf, 0x1f, 0x3e,
  0x10, 0x3b, 0x95, 0xbc, 0x89, 0xfb, 0x87, 0x3d, 0xe7, 0x1d, 0x47, 0x3e,
  0x19, 0xc8, 0x0e, 0xbe, 0xdf, 0xc2, 0x07, 0xbf, 0x36, 0x3b, 0x9f, 0xbe,
  0xa2, 0x58, 0xd9, 0x3e, 0x07, 0x9a, 0x92, 0xbe, 0xd2, 0x75, 0xb8, 0x3d,
  0xd9, 0xa6, 0x89, 0xbe, 0x0f, 0x75, 0x9a, 0xbe, 0x47, 0x3a, 0xc2, 0xbd,
  0xec, 0x57, 0x82, 0xbf, 0xb9, 0x4a, 0x00, 0xbf, 0x24, 0xfd, 0x4c, 0x3e,
  0xce, 0x6c, 0x68, 0x3d, 0x00, 0x06, 0xd2, 0x3e, 0x3b, 0xb7, 0x2a, 0xbf,
  0x1b, 0x8c, 0xb4, 0xbf, 0x21, 0x24, 0x1b, 0x3c, 0x13, 0xe9, 0x45, 0x3d,
  0x64, 0xd8, 0x8f, 0xbd, 0x81, 0xf8, 0xdc, 0xbe, 0xb8, 0x48, 0x29, 0x3e,
  0xbd, 0x94, 0x1c, 0xbe, 0x09, 0xe8, 0x8b, 0x3d, 0x7b, 0x1c, 0xee, 0x3c,
  0x59, 0x44, 0x9d, 0xbc, 0x2f, 0x55, 0x54, 0x3e, 0x82, 0x60, 0x43, 0x3d,
  0xc3, 0x2b, 0xa8, 0xbd, 0x46, 0xaf, 0x34, 0x3e, 0x32, 0x29, 0x9d, 0xbd,
  0x35, 0x9f, 0x8c, 0x3d, 0x82, 0x10, 0x3a, 0x3e, 0xf9, 0xe5, 0x36, 0x3d,
  0x5f, 0xd9, 0xdb, 0x3d, 0xdb, 0x34, 0xe0, 0xbd, 0x93, 0x2c, 0x67, 0x3b,
  0xfd, 0xe2, 0xf5, 0x3d, 0x09, 0x16, 0x8b, 0x3e, 0xdc, 0x5d, 0x6c, 0xbd,
  0x87, 0xbd, 0xbd, 0xbd, 0xc3, 0xe3, 0xd6, 0xbe, 0xda, 0x23, 0xdf, 0x3d,
  0xad, 0xa1, 0x8a, 0x3e, 0x0d, 0x08, 0xff, 0x3d, 0x5a, 0x23, 0x74, 0x3d,
  0x94, 0x74, 0x98, 0x3d, 0x90, 0xf4, 0x18, 0x3d, 0x92, 0x24, 0x15, 0xbc,
  0xd9, 0x8b, 0x41, 0xbf, 0x7d, 0x2e, 0xc9, 0x3c, 0x0e, 0x22, 0x6e, 0xbc,
  0x42, 0xf1, 0x26, 0x3e, 0x57, 0xd2, 0x0e, 0x3e, 0x10, 0x78, 0x83, 0xbe,
  0x59, 0x26, 0x5d, 0x3c, 0xb3, 0xb8, 0x04, 0x3e, 0x6f, 0xdb, 0xcb, 0xbe,
  0xb1, 0x5c, 0xae, 0xbd, 0x7f, 0x52, 0x83, 0xbd, 0x63, 0xd7, 0x18, 0x3b,
  0x04, 0x52, 0xbf, 0x3e, 0xd3, 0x00, 0xca, 0xbe, 0xc5, 0x7b, 0x7b, 0xbc,
  0x49, 0x00, 0xb3, 0xbc, 0xdd, 0x69, 0x88, 0xbd, 0xc4, 0xeb, 0x18, 0x3e,
  0x15, 0x77, 0x1d, 0xbe, 0xde, 0xf5, 0x82, 0xbe, 0x82, 0x1e, 0x07, 0xbb,
  0x6c, 0xf8, 0x06, 0x3f, 0x3b, 0xfd, 0x9c, 0xbe, 0xd9, 0xbb, 0x19, 0xbe,
  0x23, 0x3a, 0xfd, 0xbd, 0x60, 0x9c, 0x0c, 0xbe, 0xa3, 0xa6, 0x7a, 0xbe,
  0xfd, 0x3e, 0xad, 0x3e, 0xb9, 0xe3, 0xaf, 0x3e, 0x22, 0x80, 0x4a, 0x3d,
  0x30, 0xfb, 0x18, 0xbf, 0xda, 0x0f, 0xd2, 0xbe, 0xfa, 0xa5, 0xf9, 0xbd,
  0xcd, 0xca, 0x91, 0xba, 0xb4, 0x3f, 0xee, 0xbd, 0x3c, 0x51, 0x18, 0xbe,
  0x22, 0x6c, 0x00, 0xbd, 0xa8, 0xfa, 0x0a, 0x3e, 0xba, 0x77, 0xc9, 0xbe,
  0xeb, 0xc9, 0xd3, 0xbd, 0xac, 0x07, 0x19, 0xbe, 0x52, 0x33, 0xe0, 0x3d,
  0xed, 0x43, 0xcb, 0xbd, 0x77, 0x09, 0xd7, 0x3d, 0x81, 0x12, 0xc5, 0x3e,
  0xd2, 0xd1, 0x94, 0x3e, 0x61, 0xdf, 0x0c, 0xbe, 0xfa, 0x67, 0xb9, 0xbd,
  0x0c, 0xd1, 0x27, 0xbe, 0xd6, 0x85, 0x44, 0x3d, 0x02, 0x0d, 0x71, 0x3e,
  0xa1, 0xcd, 0xe6, 0x3e, 0x71, 0x0c, 0xb1, 0x3d, 0x86, 0x8e, 0xe7, 0x3e,
  0x4d, 0x88, 0x6f, 0x3d, 0xb5, 0x86, 0xba, 0x3e, 0x6e, 0x98, 0x9f, 0xbe,
  0x4f, 0xc0, 0x10, 0x3d, 0x9d, 0xee, 0x8f, 0xbb, 0xa7, 0x06, 0xb0, 0x3b,
  0x48, 0xa8, 0xd3, 0xbd, 0x94, 0xe3, 0x2b, 0xbe, 0xce, 0x8b, 0x92, 0xbd,
  0x4b, 0xe5, 0x99, 0xbd, 0x55, 0xb1, 0x76, 0xbe, 0x06, 0xfa, 0xfa, 0xbc,
  0xda, 0xb3, 0xa9, 0xbd, 0xb2, 0x78, 0xe4, 0x3d, 0x67, 0xfa, 0xa7, 0x3c,
  0xdc, 0xfd, 0x04, 0xbe, 0x30, 0xc7, 0xdc, 0xbc, 0xa3, 0xf8, 0x4e, 0xbd,
  0x9d, 0x31, 0x13, 0xbe, 0xb2, 0xa8, 0x35, 0xbe, 0xfc, 0xa9, 0xd4, 0xbd,
  0x35, 0xb6, 0xfa, 0x3d, 0x3c, 0xbf, 0x0b, 0x3e, 0xcc, 0x05, 0x7b, 0xbd,
  0x4c, 0x7e, 0xca, 0xbd, 0x63, 0x0c, 0xcc, 0xbd, 0xd0, 0xd4, 0x36, 0xbe,
  0xaa, 0xe3, 0xce, 0xbe, 0xf0, 0x07, 0x60, 0xbe, 0x30, 0x1f, 0xdc, 0x3e,
  0x68, 0xda, 0x1d, 0x3e, 0x71, 0xf8, 0xf6, 0x3e, 0x86, 0xee, 0xd2, 0xbe,
  0xe8, 0x1f, 0x06, 0xbf, 0xe1, 0x3d, 0x0f, 0xbe, 0xb7, 0x88, 0x1a, 0xbf,
  0xa0, 0xb0, 0xf0, 0xbe, 0x8e, 0xa2, 0x83, 0xbd, 0xa5, 0xdb, 0x5f, 0x3e,
  0x15, 0x7b, 0x81, 0xbd, 0x5d, 0x83, 0x09, 0xbf, 0x56, 0x0e, 0x75, 0xbf,
  0x09, 0xa1, 0xbb, 0x3d, 0xd5, 0x25, 0x5c, 0x3e, 0xb1, 0xca, 0x03, 0x3e,
  0x9a, 0x01, 0x92, 0xbc, 0xb4, 0x03, 0x4c, 0x3e, 0x2e, 0x69, 0x07, 0xbd,
  0x36, 0x14, 0x80, 0x3d, 0xa1, 0x40, 0x5e, 0x3e, 0xc4, 0x70, 0x28, 0xbe,
  0x2d, 0x57, 0x3b, 0x3d, 0x3e, 0x38, 0x9f, 0xbc, 0x10, 0xa7, 0xb2, 0xbc,
  0x3a, 0x07, 0x46, 0xbe, 0xcc, 0xb2, 0xaf, 0x3d, 0x25, 0xce, 0x5d, 0xbe,
  0xe0, 0x21, 0x0e, 0x3e, 0x59, 0xaf, 0x20, 0xbd, 0x44, 0xe4, 0x1b, 0xbc,
  0xa9, 0xca, 0x11, 0x3c, 0x63, 0x96, 0x87, 0x3d, 0x18, 0x83, 0x34, 0x3f,
  0x6f, 0xc5, 0x52, 0x3d, 0x22, 0x86, 0xad, 0xbb, 0xb0, 0x5c, 0xa3, 0x3b,
  0xe6, 0x47, 0x15, 0xbd, 0xf5, 0x25, 0x66, 0xbd, 0x27, 0x79, 0x52, 0xbd,
  0xec, 0xd4, 0x96, 0x3d, 0xf5, 0x11, 0x8c, 0xbd, 0x2e, 0x73, 0x8c, 0xbd,
  0x21, 0x7f, 0x4d, 0xbc, 0x2a, 0x0e, 0x1b, 0xbe, 0x48, 0xda, 0xa2, 0xbc,
  0x30, 0xc4, 0x05, 0xbd, 0x27, 0x8c, 0x09, 0xbe, 0x05, 0x74, 0xa4, 0xbb,
  0x99, 0x5a, 0x17, 0xbe, 0xb3, 0x9f, 0xee, 0x3c, 0x1f, 0x47, 0x0a, 0xbe,
  0x40, 0x8e, 0xb5, 0xbd, 0x36, 0x88, 0x8b, 0xbd, 0x42, 0xdb, 0x2b, 0x3d,
  0x11, 0xe6, 0xcd, 0xbb, 0x55, 0x8b, 0x35, 0xbd, 0xb8, 0x2e, 0xda, 0xbc,
  0xbd, 0x4b, 0x82, 0x3d, 0x3c, 0xdc, 0x13, 0xbe, 0x02, 0xb3, 0x04, 0xbe,
  0x58, 0x74, 0x82, 0xbc, 0x3b, 0x01, 0x3b, 0xbd, 0xbd, 0xfc, 0x0f, 0xbe,
  0xde, 0xe2, 0x3f, 0x3d, 0xed, 0x9b, 0x42, 0x3d, 0x21, 0xf2, 0x28, 0xbe,
  0x1f, 0x5e, 0xc6, 0xbd, 0xb5, 0xa6, 0xdb, 0xbd, 0xd4, 0xd6, 0x1d, 0x3f,
  0x92, 0x3b, 0xde, 0x3d, 0x76, 0xb1, 0x46, 0xbd, 0xd1, 0x2e, 0x89, 0x3d,
  0x95, 0x26, 0x78, 0x3c, 0xbd, 0xbe, 0x27, 0x3e, 0xa3, 0x48, 0xef, 0xbd,
  0x5f, 0x37, 0x1d, 0x3e, 0x24, 0xa1, 0xb1, 0xbd, 0xf8, 0xb1, 0x51, 0xbd,
  0xe5, 0x08, 0xa7, 0xbd, 0xdb, 0x4b, 0x1f, 0x3e, 0xe7, 0x13, 0xa3, 0xbd,
  0x3e, 0xd9, 0xe3, 0x3d, 0x07, 0xc8, 0x1c, 0xbe, 0xeb, 0x30, 0x8c, 0x3d,
  0x91, 0x78, 0x74, 0x3e, 0x06, 0x0a, 0x82, 0xbd, 0xff, 0x80, 0x87, 0xbd,
  0x7f, 0x6c, 0x41, 0x3c, 0x71, 0x89, 0xc0, 0x3d, 0x17, 0xe0, 0x46, 0x3d,
  0x23, 0x1c, 0xcf, 0xbd, 0xea, 0xf6, 0xb5, 0xbd, 0x7e, 0x02, 0x8f, 0xbd,
  0xde, 0xe4, 0x8b, 0xbe, 0x5f, 0x85, 0x48, 0xbe, 0x82, 0x34, 0xeb, 0xbe,
  0x6e, 0x72, 0x33, 0xbf, 0xb3, 0x47, 0xea, 0xbe, 0x16, 0x76, 0x87, 0xbd,
  0xe2, 0xe0, 0x10, 0xbe, 0x16, 0xe8, 0x81, 0xbd, 0xd6, 0x50, 0x6d, 0xbe,
  0x7f, 0xea, 0x45, 0xbe, 0xa4, 0x5e, 0xec, 0x3e, 0x33, 0xeb, 0x19, 0x3e,
  0x8b, 0xd5, 0x9c, 0x3e, 0x7d, 0x70, 0x0d, 0xbe, 0x18, 0xef, 0x73, 0xbe,
  0x3d, 0xd4, 0x18, 0x3d, 0xea, 0x08, 0x58, 0xbe, 0x73, 0xb5, 0x09, 0xbe,
  0x52, 0x69, 0x25, 0x3d, 0xfe, 0xf7, 0x0d, 0x3d, 0xb1, 0x8e, 0xa3, 0x3e,
  0xd5, 0x0b, 0x59, 0xbe, 0x83, 0xac, 0xd4, 0xbd, 0xbf, 0x74, 0x1e, 0x3e,
  0xb4, 0xbb, 0xfe, 0x3d, 0x44, 0xdd, 0x75, 0xbe, 0xc4, 0xc5, 0x89, 0x3d,
  0xf4, 0x8c, 0x15, 0xbe, 0x74, 0x3e, 0x31, 0x3d, 0x2c, 0x8e, 0x9c, 0x3c,
  0xb0, 0x3e, 0xe3, 0x3d, 0xe2, 0xdd, 0xff, 0xff, 0x10, 0x00, 0x00, 0x00,
  0x0a, 0x00, 0x00, 0x00, 0x1c, 0x00, 0x00, 0x00, 0x38, 0x00, 0x00, 0x00,
  0x04, 0x00, 0x00, 0x00, 0x10, 0x00, 0x00, 0x00, 0x04, 0x00, 0x00, 0x00,
  0x01, 0x00, 0x00, 0x00, 0x08, 0x00, 0x00, 0x00, 0x1a, 0x00, 0x00, 0x00,
  0x73, 0x65, 0x71, 0x75, 0x65, 0x6e, 0x74, 0x69, 0x61, 0x6c, 0x2f, 0x63,
  0x6f, 0x6e, 0x76, 0x32, 0x64, 0x5f, 0x31, 0x2f, 0x43, 0x6f, 0x6e, 0x76,
  0x32, 0x44, 0x00, 0x00, 0x58, 0xdd, 0xff, 0xff, 0x62, 0xde, 0xff, 0xff,
  0x04, 0x00, 0x00, 0x00, 0x80, 0x01, 0x00, 0x00, 0xca, 0x83, 0x69, 0x3e,
  0xb5, 0x1f, 0x11, 0x3e, 0xd8, 0xda, 0x43, 0x3e, 0x27, 0x1e, 0x51, 0x3d,
  0xe3, 0x89, 0x71, 0xbd, 0xa8, 0x0d, 0x64, 0xbe, 0xac, 0x35, 0x59, 0xbd,
  0xa6, 0x4b, 0x06, 0x3e, 0x2c, 0x61, 0x85, 0xbe, 0xc7, 0x5f, 0x4a, 0x3e,
  0xd9, 0x54, 0xd7, 0x3c, 0x17, 0x60, 0x97, 0xbe, 0x1d, 0x49, 0x30, 0x3d,
  0x93, 0x84, 0x9e, 0x3d, 0xc5, 0x62, 0x31, 0xbe, 0x26, 0x6f, 0x4c, 0xbe,
  0x34, 0x95, 0xdf, 0xbc, 0x5e, 0x8a, 0x0e, 0xbe, 0x5a, 0xfc, 0xa0, 0x3d,
  0x53, 0x2b, 0x97, 0xbd, 0x74, 0x08, 0xa9, 0xbc, 0x0b, 0xc0, 0xa9, 0x3c,
  0xba, 0xd4, 0x27, 0xbe, 0xe6, 0xab, 0xac, 0x3d, 0x6d, 0xd9, 0xd5, 0xbb,
  0xe1, 0xb5, 0xfc, 0xbd, 0x0e, 0xeb, 0x95, 0x3d, 0xb2, 0xb1, 0x80, 0xbc,
  0xf9, 0x12, 0xf9, 0xbd, 0x9e, 0x78, 0xd6, 0x3d, 0x54, 0x4b, 0xaf, 0xbd,
  0xfa, 0x98, 0x42, 0x3d, 0xfb, 0x7a, 0xf0, 0xbc, 0x06, 0xea, 0x2a, 0xbd,
  0x56, 0x14, 0x39, 0x3c, 0x2a, 0x0f, 0x70, 0x3a, 0xe7, 0x58, 0x06, 0x3d,
  0x82, 0x48, 0xd0, 0xbd, 0x26, 0xe3, 0xb5, 0xbd, 0x97, 0x18, 0x3c, 0xbe,
  0x6b, 0x6f, 0xe9, 0xbd, 0x22, 0x08, 0x1d, 0xbf, 0xfe, 0x7d, 0x6c, 0x3e,
  0x98, 0xe5, 0xec, 0x3d, 0xda, 0x68, 0xbf, 0x3e, 0x80, 0x16, 0x71, 0x3c,
  0xde, 0x5c, 0x8b, 0x3d, 0x69, 0x67, 0x8e, 0x3e, 0xe1, 0x9f, 0x5e, 0xbe,
  0x95, 0xc1, 0xcc, 0x3e, 0xe8, 0x21, 0x80, 0x3e, 0xad, 0x3c, 0x78, 0xbe,
  0x27, 0x9f, 0xae, 0xbc, 0xe8, 0x3c, 0x10, 0x3e, 0x25, 0xbe, 0x93, 0x3e,
  0x20, 0xb4, 0x46, 0xbe, 0x21, 0x3b, 0xca, 0xbd, 0xfb, 0x88, 0x31, 0x3e,
  0x4b, 0x7c, 0x55, 0xbe, 0x2c, 0x63, 0x92, 0xbe, 0x8d, 0xe0, 0xcc, 0x3c,
  0x72, 0x6d, 0xa3, 0x39, 0xff, 0x1b, 0x55, 0xbe, 0x94, 0x3e, 0xff, 0x3d,
  0x83, 0xe2, 0x8a, 0x3d, 0xee, 0xb5, 0x0a, 0xbf, 0x1d, 0x58, 0xc7, 0xbe,
  0x7e, 0xa1, 0x5c, 0xbc, 0x76, 0xc8, 0x92, 0x3e, 0xde, 0xba, 0x93, 0x3e,
  0xa1, 0x53, 0x15, 0xbd, 0x20, 0x8b, 0x97, 0x3e, 0x95, 0x85, 0x20, 0xbd,
  0x43, 0x32, 0x8b, 0xbd, 0xc1, 0xd5, 0xb1, 0xbc, 0x65, 0x9e, 0x4c, 0xbd,
  0x13, 0xda, 0x63, 0xbd, 0xd6, 0x8b, 0x2c, 0x3d, 0x09, 0x97, 0xe5, 0xba,
  0x4d, 0xe4, 0x53, 0xbd, 0xfd, 0x5b, 0x72, 0x3d, 0xa3, 0x5f, 0x61, 0xbd,
  0x13, 0x6c, 0xe9, 0xbc, 0x5d, 0x41, 0x3d, 0x3d, 0xe8, 0xdf, 0x27, 0xbd,
  0xeb, 0x09, 0x93, 0xbd, 0x50, 0x6d, 0xa9, 0xbd, 0x5f, 0x3f, 0x9e, 0xbd,
  0xa2, 0xb8, 0x42, 0xbd, 0x50, 0xb4, 0x56, 0xbb, 0xee, 0xba, 0x1f, 0xbd,
  0xb4, 0xd5, 0x19, 0xbc, 0xea, 0x49, 0x0b, 0x3d, 0x86, 0xff, 0xa0, 0xbd,
  0x8c, 0x10, 0x43, 0xbd, 0x0f, 0x49, 0x1b, 0x3d, 0xba, 0xdf, 0xff, 0xff,
  0x10, 0x00, 0x00, 0x00, 0x09, 0x00, 0x00, 0x00, 0x1c, 0x00, 0x00, 0x00,
  0x38, 0x00, 0x00, 0x00, 0x04, 0x00, 0x00, 0x00, 0x08, 0x00, 0x00, 0x00,
  0x04, 0x00, 0x00, 0x00, 0x03, 0x00, 0x00, 0x00, 0x01, 0x00, 0x00, 0x00,
  0x18, 0x00, 0x00, 0x00, 0x73, 0x65, 0x71, 0x75, 0x65, 0x6e, 0x74, 0x69,
  0x61, 0x6c, 0x2f, 0x63, 0x6f, 0x6e, 0x76, 0x32, 0x64, 0x2f, 0x43, 0x6f,
  0x6e, 0x76, 0x32, 0x44, 0x00, 0x00, 0x00, 0x00, 0x30, 0xdf, 0xff, 0xff,
  0x3a, 0xe0, 0xff, 0xff, 0x04, 0x00, 0x00, 0x00, 0x00, 0x01, 0x00, 0x00,
  0x53, 0x9e, 0x68, 0xbe, 0xf7, 0x63, 0x6e, 0x3d, 0x26, 0xa7, 0xbd, 0x3e,
  0xbc, 0xf0, 0xaa, 0xbe, 0xbc, 0xdb, 0x9f, 0x3e, 0x64, 0xeb, 0x1c, 0x3d,
  0x62, 0x5f, 0x2f, 0xbe, 0xb8, 0xf7, 0xeb, 0x3e, 0xf4, 0xca, 0xb4, 0xbc,
  0x68, 0x05, 0x77, 0x3e, 0x75, 0xae, 0x52, 0x3e, 0x8e, 0x0a, 0x7b, 0x3e,
  0xf5, 0xd7, 0x5a, 0xbd, 0xbb, 0x80, 0x10, 0xbe, 0x18, 0xae, 0xad, 0x3e,
  0xc4, 0x19, 0xb3, 0xbe, 0xc2, 0xf3, 0x38, 0x3e, 0x92, 0x93, 0xed, 0xbe,
  0xe5, 0xf1, 0xeb, 0x3e, 0xc5, 0xda, 0xed, 0xbe, 0xbc, 0xd9, 0xad, 0x3e,
  0x3e, 0xa9, 0xb9, 0x3d, 0x08, 0x5e, 0x1d, 0xbe, 0x70, 0x82, 0xc8, 0x3e,
  0x8e, 0xf8, 0x8b, 0x3d, 0x64, 0x44, 0xc6, 0x3d, 0x94, 0x06, 0x92, 0x3e,
  0x8e, 0xcb, 0xcd, 0xbd, 0x04, 0x7f, 0x89, 0xbd, 0x03, 0x2c, 0x87, 0xbd,
  0x1e, 0x9f, 0x90, 0x3b, 0xe2, 0x8a, 0xb4, 0xbe, 0x89, 0x1c, 0xd5, 0xbd,
  0x45, 0x4b, 0xdc, 0xbe, 0x30, 0x2f, 0xc8, 0x3e, 0xa5, 0x20, 0xa3, 0x3d,
  0x36, 0x08, 0x98, 0x3e, 0x14, 0x17, 0x93, 0x3c, 0x95, 0x88, 0x64, 0xbd,
  0xd6, 0x8a, 0xd7, 0x3e, 0xda, 0x1c, 0x05, 0x3d, 0x7e, 0x57, 0x8d, 0x3e,
  0x92, 0xeb, 0x75, 0x3e, 0x46, 0xa4, 0x9d, 0x3e, 0x85, 0xd2, 0xdd, 0x3d,
  0x2e, 0xaa, 0x8d, 0xbb, 0x3b, 0x8e, 0xac, 0xbe, 0xd3, 0x79, 0xdc, 0xbe,
  0x15, 0xb9, 0x61, 0x3e, 0x96, 0x14, 0xb5, 0xbe, 0x59, 0x79, 0xe8, 0x3e,
  0xdd, 0xfb, 0x59, 0xbe, 0x4d, 0x65, 0xca, 0x3e, 0x63, 0x61, 0x00, 0x3c,
  0x76, 0x5b, 0x12, 0xbe, 0x00, 0xe9, 0xd8, 0x3e, 0x67, 0x07, 0x7f, 0x3d,
  0x7c, 0x83, 0x10, 0xbf, 0xc8, 0xfa, 0x21, 0x3e, 0x1a, 0xc9, 0xbe, 0x3e,
  0x3e, 0x72, 0x1e, 0x3d, 0xa9, 0x88, 0xb6, 0xbd, 0x8d, 0xe0, 0xed, 0xbe,
  0x41, 0x48, 0xd3, 0xbe, 0x12, 0xe1, 0xff, 0xff, 0x10, 0x00, 0x00, 0x00,
  0x08, 0x00, 0x00, 0x00, 0x14, 0x00, 0x00, 0x00, 0x30, 0x00, 0x00, 0x00,
  0x02, 0x00, 0x00, 0x00, 0x04, 0x00, 0x00, 0x00, 0x10, 0x00, 0x00, 0x00,
  0x19, 0x00, 0x00, 0x00, 0x73, 0x65, 0x71, 0x75, 0x65, 0x6e, 0x74, 0x69,
  0x61, 0x6c, 0x2f, 0x64, 0x65, 0x6e, 0x73, 0x65, 0x5f, 0x31, 0x2f, 0x4d,
  0x61, 0x74, 0x4d, 0x75, 0x6c, 0x00, 0x00, 0x00, 0x80, 0xe0, 0xff, 0xff,
  0x8a, 0xe1, 0xff, 0xff, 0x04, 0x00, 0x00, 0x00, 0x00, 0x1c, 0x00, 0x00,
  0x46, 0x08, 0x50, 0xbe, 0x10, 0xe2, 0x92, 0x3d, 0x08, 0x7a, 0xa2, 0x3d,
  0xbf, 0xa1, 0x2a, 0x3e, 0x62, 0x9e, 0x83, 0xbe, 0x3a, 0xca, 0x96, 0xbd,
  0xaf, 0x32, 0x32, 0x3e, 0x3a, 0x03, 0xd9, 0xbd, 0x76, 0xa3, 0xd2, 0x3b,
  0x59, 0x52, 0x25, 0xbe, 0xff, 0x80, 0x04, 0x3e, 0x84, 0xd5, 0x36, 0xbe,
  0x57, 0xc6, 0x00, 0x3e, 0x39, 0x77, 0x2a, 0xbe, 0xa5, 0x6d, 0x23, 0xbe,
  0x46, 0x0d, 0x99, 0x3d, 0xfd, 0x6c, 0x38, 0xbe, 0x65, 0x70, 0x31, 0x3e,
  0xbc, 0xdc, 0x00, 0xbd, 0x95, 0x7e, 0x72, 0x3e, 0xbf, 0xfa, 0x31, 0x3e,
  0x1c, 0xbb, 0xe3, 0xbd, 0x91, 0x8a, 0x24, 0x3d, 0x61, 0x2e, 0x11, 0xbe,
  0x31, 0xc9, 0xe0, 0x3d, 0x4d, 0xdd, 0x0e, 0xbe, 0xf5, 0xb1, 0xb1, 0x3e,
  0x05, 0x20, 0x8f, 0xbc, 0x99, 0x00, 0x0c, 0xbd, 0x41, 0xc3, 0xad, 0xbd,
  0x86, 0x8b, 0x72, 0xbe, 0xc6, 0xb0, 0x72, 0xbe, 0x15, 0x85, 0xad, 0xbe,
  0xe0, 0x60, 0x20, 0x3e, 0x73, 0x35, 0x2e, 0xbe, 0xed, 0xa5, 0xbf, 0x3e,
  0x23, 0x7b, 0x96, 0x3d, 0xd3, 0x16, 0xe5, 0xbc, 0x66, 0x88, 0x2b, 0x3e,
  0x7d, 0xd5, 0xf1, 0x3d, 0x70, 0xe4, 0x0e, 0xbe, 0x1d, 0x84, 0x83, 0xbd,
  0x43, 0x03, 0xae, 0x3e, 0xcf, 0xe2, 0x54, 0x3d, 0xc1, 0x58, 0x72, 0x3c,
  0x61, 0x90, 0x01, 0x3d, 0x46, 0x1a, 0x25, 0xbe, 0xb1, 0x8b, 0x44, 0xbe,
  0xf9, 0xe0, 0x05, 0xbf, 0xdb, 0xe5, 0x16, 0x3e, 0xcf, 0x52, 0x86, 0x3d,
  0xa3, 0x45, 0x5c, 0x3e, 0x51, 0xd7, 0x2b, 0xbe, 0x9e, 0x16, 0x33, 0xbe,
  0x8a, 0x40, 0xea, 0x3d, 0xd3, 0xfd, 0xb5, 0x3d, 0xb5, 0xc1, 0x9c, 0xbd,
  0x64, 0xc3, 0x0b, 0xbe, 0xc0, 0xce, 0x7c, 0x3e, 0x66, 0x12, 0xa8, 0x3d,
  0xc8, 0x36, 0x76, 0x3e, 0xb2, 0x67, 0x94, 0x3d, 0x45, 0xcd, 0x84, 0x3d,
  0x71, 0xfd, 0x6b, 0x3d, 0x34, 0x93, 0x0f, 0xbe, 0x5e, 0xbd, 0xab, 0x3d,
  0x4a, 0x91, 0x01, 0xbe, 0x73, 0x8e, 0x9c, 0x3e, 0xd4, 0x3b, 0x31, 0xbe,
  0xb0, 0xdb, 0xaa, 0xbb, 0xe7, 0xa6, 0xd7, 0x3d, 0xc8, 0x23, 0x89, 0x3e,
  0xd0, 0x10, 0x87, 0xbe, 0x88, 0xfa, 0x3f, 0xbe, 0x7d, 0xff, 0x4a, 0x3d,
  0x73, 0x28, 0x23, 0xbe, 0xd8, 0x4c, 0x33, 0x3e, 0x7d, 0xe8, 0xb8, 0x3e,
  0x7a, 0xf2, 0xf3, 0xbd, 0x91, 0x39, 0x73, 0xbe, 0x9e, 0x94, 0x91, 0xbe,
  0x8d, 0xa6, 0x81, 0x3d, 0x19, 0x67, 0x20, 0xbd, 0x62, 0xc0, 0x8b, 0x3e,
  0xb1, 0xa3, 0x77, 0xbe, 0x64, 0x7c, 0x89, 0xbd, 0xf6, 0xd8, 0x17, 0x3e,
  0x12, 0x0b, 0x9c, 0xbe, 0x8e, 0x49, 0xbf, 0x3d, 0x27, 0xfb, 0x8a, 0xbe,
  0xdd, 0x30, 0xe6, 0x3d, 0xef, 0x40, 0xa2, 0x3d, 0xa1, 0x51, 0x9d, 0x3d,
  0x55, 0x67, 0x48, 0x3e, 0x52, 0x2a, 0xb8, 0xbd, 0x38, 0x81, 0x71, 0xbc,
  0xa8, 0x68, 0x01, 0xbf, 0x8f, 0xaa, 0x01, 0xbe, 0x9c, 0xa3, 0x7e, 0xbe,
  0x14, 0x28, 0x8d, 0x3e, 0x4d, 0x8e, 0x99, 0xbe, 0xac, 0x64, 0x59, 0xbe,
  0x44, 0x86, 0xee, 0x3d, 0xa2, 0x69, 0x39, 0xbe, 0x5c, 0x74, 0x65, 0xbc,
  0x57, 0xb8, 0x8c, 0xbc, 0x12, 0xb9, 0x56, 0x3e, 0xb1, 0x23, 0x0f, 0xbe,
  0xba, 0x20, 0x1d, 0x3d, 0x4f, 0x96, 0x72, 0x3d, 0x29, 0x25, 0x79, 0xbe,
  0x5f, 0x56, 0xb4, 0xbc, 0x2a, 0x26, 0x55, 0xbe, 0x33, 0x63, 0x9f, 0x3d,
  0x85, 0xd5, 0x29, 0xbe, 0xec, 0x68, 0xf3, 0xbd, 0xc9, 0xb5, 0x5b, 0xbe,
  0x05, 0xb3, 0x2a, 0xbe, 0xf3, 0xe9, 0x7d, 0xb9, 0xd5, 0x1e, 0x47, 0x3d,
  0xff, 0xfa, 0x37, 0xbe, 0x14, 0x67, 0x71, 0xbe, 0xb9, 0xbf, 0x47, 0x3c,
  0x97, 0x85, 0xef, 0xbc, 0x6b, 0xf8, 0x85, 0x3d, 0x6e, 0x61, 0x69, 0xbe,
  0x3a, 0x6b, 0xe9, 0xbd, 0x7e, 0xb0, 0x10, 0x3d, 0x93, 0x28, 0xd8, 0xbc,
  0xef, 0x67, 0x57, 0xbd, 0xc0, 0x6e, 0xd1, 0x3d, 0x48, 0xb4, 0xa0, 0x3d,
  0x2a, 0x69, 0xa1, 0xbc, 0x91, 0x93, 0x9a, 0x3d, 0xed, 0xce, 0xe0, 0xbd,
  0x5e, 0x18, 0xeb, 0xbd, 0x15, 0x68, 0x55, 0x3d, 0x3a, 0x1a, 0x96, 0xbe,
  0xd8, 0x26, 0x2d, 0x3e, 0xb4, 0x0e, 0x86, 0x3b, 0x07, 0x48, 0x7a, 0xbe,
  0xb2, 0x8f, 0x8c, 0xbc, 0x8b, 0xf8, 0x91, 0xbd, 0x81, 0x1a, 0x0a, 0xbe,
  0x89, 0x18, 0xca, 0x3d, 0xee, 0x17, 0x46, 0xbe, 0xa3, 0xd2, 0xeb, 0xbd,
  0xf5, 0xaa, 0xce, 0x3d, 0x75, 0xcf, 0xff, 0xbd, 0x10, 0x3b, 0x02, 0x3e,
  0xc2, 0x41, 0x65, 0xbe, 0xd7, 0x80, 0xa1, 0x3d, 0x66, 0xc1, 0xb9, 0x3d,
  0x24, 0x8c, 0x09, 0xbe, 0x41, 0x82, 0xe5, 0x3d, 0x56, 0x8d, 0xab, 0x3b,
  0x92, 0x31, 0x64, 0xbe, 0x36, 0xd0, 0x5e, 0xbe, 0x89, 0x8b, 0x4b, 0xbe,
  0x1d, 0x36, 0xe7, 0x3c, 0xc6, 0xc8, 0xcd, 0xbc, 0x5c, 0x30, 0xfa, 0xbd,
  0x94, 0x30, 0x51, 0xbe, 0x6a, 0x29, 0xc6, 0x3d, 0xf2, 0x0e, 0xab, 0xbd,
  0x6c, 0x7d, 0xc6, 0x3c, 0xf2, 0x6d, 0x61, 0xbe, 0x90, 0xdd, 0xf8, 0xbd,
  0xca, 0x3f, 0x35, 0xbd, 0x1a, 0x25, 0xbe, 0x3c, 0xba, 0x25, 0x18, 0x3c,
  0xd9, 0x30, 0xa5, 0xbe, 0x4e, 0xdb, 0x7e, 0xbd, 0x0d, 0xdc, 0x1e, 0x3d,
  0x4f, 0x40, 0x84, 0xbe, 0x3a, 0x39, 0xa9, 0xbd, 0xa5, 0x89, 0x36, 0xbe,
  0x14, 0x31, 0xde, 0xbb, 0xb4, 0xed, 0x1b, 0x3d, 0xf0, 0x63, 0x2d, 0x3e,
  0xc9, 0x1b, 0x23, 0x3d, 0x80, 0xc0, 0xfe, 0x3d, 0xe3, 0x9c, 0x41, 0x3e,
  0x28, 0x44, 0x0e, 0xbe, 0x3f, 0xfd, 0x19, 0x3e, 0x8e, 0xaf, 0x76, 0xbe,
  0x20, 0x5c, 0x36, 0xbe, 0xa9, 0x8d, 0x74, 0xbe, 0x54, 0x68, 0xd1, 0xbd,
  0x4e, 0x24, 0x3a, 0xbe, 0x60, 0xc5, 0xa0, 0xbe, 0x8c, 0xa0, 0xfb, 0x3c,
  0x11, 0x34, 0xb7, 0xbc, 0x96, 0x5d, 0x54, 0x3d, 0xb4, 0x42, 0xaa, 0xbd,
  0x38, 0x54, 0x79, 0x3d, 0x96, 0xdb, 0x8e, 0xbc, 0xae, 0x3b, 0x25, 0xbe,
  0x9c, 0xc6, 0xbf, 0xbd, 0x2e, 0x39, 0x30, 0xbe, 0xf0, 0x36, 0xa0, 0x3d,
  0xc8, 0x54, 0x9e, 0xbe, 0xd6, 0x87, 0xe4, 0x3d, 0xa8, 0x6b, 0x68, 0xbe,
  0xba, 0x1f, 0x78, 0xbe, 0xda, 0xc6, 0xf1, 0xbd, 0x83, 0x61, 0xa2, 0xbe,
  0xb8, 0xeb, 0x12, 0xbe, 0x57, 0x54, 0x55, 0xbe, 0xc7, 0x61, 0x25, 0xbc,
  0x89, 0x86, 0x17, 0xbe, 0x60, 0xca, 0x96, 0x3d, 0xd3, 0x47, 0x03, 0x3e,
  0x69, 0x82, 0x43, 0xbe, 0xc2, 0x5c, 0x85, 0x3c, 0xb7, 0x92, 0xcf, 0xbd,
  0xe0, 0x00, 0x42, 0xbe, 0x7b, 0x45, 0x33, 0xbe, 0xce, 0x36, 0x98, 0x3d,
  0x2e, 0x2e, 0xf3, 0xbd, 0x46, 0x7e, 0x2c, 0xbd, 0xfe, 0xb2, 0x7b, 0xbb,
  0x6f, 0x96, 0x72, 0xbe, 0x58, 0x46, 0xd3, 0xbd, 0x2d, 0x25, 0xff, 0xbc,
  0x6f, 0x08, 0x3f, 0xbe, 0xff, 0xe0, 0x95, 0xbe, 0xe5, 0xeb, 0x32, 0x3e,
  0x70, 0xfe, 0xa2, 0x3c, 0x23, 0x7f, 0x90, 0x3c, 0x48, 0xc4, 0x5c, 0xbd,
  0x13, 0x21, 0x4b, 0x3e, 0x23, 0x72, 0xa6, 0x3e, 0xb1, 0xa0, 0x1c, 0xbe,
  0xb6, 0x1d, 0x4b, 0x3e, 0x30, 0x7e, 0x1e, 0xbe, 0xad, 0x29, 0x73, 0x3e,
  0xcc, 0x96, 0x04, 0x3e, 0x14, 0xaa, 0x97, 0x3c, 0xfe, 0x21, 0x85, 0x3d,
  0xad, 0xcd, 0x9c, 0xbd, 0xb3, 0x20, 0x16, 0xbe, 0x14, 0x70, 0x96, 0xbe,
  0xe7, 0x2b, 0x35, 0xbe, 0x21, 0x16, 0x92, 0x3d, 0x56, 0x66, 0x8b, 0xbe,
  0xab, 0x62, 0x90, 0x3d, 0xc3, 0xc9, 0x2b, 0xbc, 0x3e, 0x2e, 0x05, 0xbe,
  0x10, 0x64, 0xf3, 0xbd, 0x94, 0xdf, 0x89, 0xbe, 0xa3, 0x42, 0x1f, 0xbe,
  0xa9, 0xf8, 0x21, 0xbd, 0xbc, 0x8c, 0x85, 0x3b, 0xf6, 0x91, 0xd4, 0x3b,
  0x1c, 0x5c, 0x83, 0xbc, 0xca, 0xa2, 0xd5, 0xbd, 0x56, 0x65, 0x90, 0xbe,
  0xd9, 0xfd, 0x92, 0xbe, 0x7c, 0xf4, 0x42, 0x3c, 0x09, 0x89, 0x29, 0x3e,
  0x26, 0x10, 0x74, 0xbe, 0x4f, 0x75, 0x04, 0x3d, 0xa2, 0x4d, 0xef, 0x3c,
  0x57, 0x83, 0x7b, 0xbc, 0x1a, 0xad, 0xa0, 0xbd, 0x50, 0xa8, 0x85, 0xbe,
  0x4d, 0xf9, 0x51, 0xbd, 0x43, 0x28, 0x4f, 0xbd, 0x70, 0x53, 0xf9, 0xbd,
  0xc1, 0xcb, 0x0c, 0x3d, 0x58, 0x2c, 0x00, 0xbd, 0x21, 0xc7, 0x13, 0xbc,
  0x9f, 0xb9, 0x81, 0xbe, 0x38, 0x53, 0x5d, 0x3d, 0x0a, 0x5c, 0x0e, 0xbd,
  0xd5, 0xf7, 0x7c, 0xbb, 0x44, 0xc4, 0xe5, 0xbd, 0xfd, 0x6e, 0x65, 0xbe,
  0xce, 0xe8, 0x8e, 0x3d, 0xc7, 0x89, 0x1d, 0x3e, 0xc9, 0xad, 0xa8, 0x3d,
  0x5e, 0x4f, 0x80, 0xbe, 0x4a, 0x21, 0xba, 0xbd, 0xe4, 0x3a, 0x0c, 0xbc,
  0xbc, 0xd4, 0x76, 0xbe, 0x0c, 0x07, 0xa8, 0x3b, 0xd5, 0x97, 0x04, 0xbe,
  0x1c, 0xd2, 0x50, 0xbd, 0xc1, 0xc0, 0x5a, 0xbe, 0x6e, 0xcc, 0x21, 0x3b,
  0x1d, 0xc7, 0x24, 0x3e, 0xeb, 0x90, 0x54, 0x3b, 0x7f, 0x10, 0x98, 0xbb,
  0x54, 0xa1, 0xc2, 0xbd, 0x8e, 0x81, 0x4f, 0xbd, 0x69, 0xda, 0xdc, 0x3e,
  0x2a, 0x82, 0xbe, 0xbc, 0x3c, 0x67, 0x9b, 0x3e, 0x2f, 0xbf, 0xec, 0xbd,
  0x24, 0x54, 0x7b, 0x3b, 0x32, 0x5a, 0x1d, 0xbe, 0xf8, 0xde, 0xdc, 0xbb,
  0x94, 0xdd, 0xcb, 0x3d, 0x83, 0x6b, 0x92, 0xbb, 0xb2, 0xbb, 0xae, 0xbe,
  0xfc, 0x0c, 0x1e, 0xbe, 0xf0, 0xf1, 0x65, 0x3e, 0x15, 0x71, 0x94, 0x3d,
  0xfa, 0x87, 0x75, 0xbd, 0x48, 0x4e, 0x66, 0x3d, 0x24, 0x0e, 0x73, 0x3d,
  0xb5, 0xfc, 0xbe, 0x3e, 0x58, 0x91, 0x41, 0xbe, 0xc6, 0xb7, 0xa5, 0x3e,
  0xe7, 0xfc, 0x58, 0xbe, 0xab, 0xbd, 0x56, 0x3e, 0x6d, 0xdf, 0x65, 0xbd,
  0xcb, 0xe2, 0xc1, 0x3c, 0xa9, 0x7a, 0xa1, 0x3d, 0x84, 0x39, 0xb0, 0x3c,
  0x3d, 0x8d, 0x5e, 0xbc, 0x11, 0x89, 0x9c, 0xbd, 0x01, 0x80, 0x36, 0x3e,
  0xca, 0xf0, 0x6b, 0x3d, 0x6e, 0x61, 0x74, 0xbd, 0x88, 0x23, 0x40, 0xbe,
  0xc0, 0x97, 0x85, 0x3c, 0x59, 0x75, 0xdd, 0x3d, 0x84, 0x26, 0xca, 0xbd,
  0x7e, 0x58, 0x38, 0x3e, 0x11, 0xaa, 0x48, 0xbd, 0x9a, 0xb3, 0xfe, 0x3d,
  0x3e, 0xe8, 0xb4, 0xbd, 0x80, 0x46, 0x2a, 0x3c, 0x5c, 0x49, 0x5d, 0x3e,
  0x2e, 0x74, 0x9f, 0xbe, 0x3d, 0x4a, 0x4a, 0x3d, 0xc5, 0x0c, 0x45, 0xbd,
  0x0e, 0xa3, 0xb5, 0xbd, 0xa4, 0xc0, 0x2e, 0x3d, 0x3e, 0x49, 0x05, 0x3e,
  0x3a, 0xd8, 0xbc, 0x3d, 0xd6, 0xc1, 0x22, 0xbd, 0x95, 0x36, 0x8a, 0xbe,
  0x37, 0xb7, 0x8a, 0xbd, 0x88, 0x5f, 0xe9, 0x3d, 0xe1, 0x70, 0x2f, 0xbe,
  0x94, 0xec, 0x47, 0x3d, 0x4c, 0x6a, 0x16, 0xbd, 0xd6, 0x59, 0x7d, 0xbe,
  0xf1, 0x7f, 0xd3, 0xbd, 0x4d, 0x0e, 0x9e, 0x3c, 0xc1, 0x90, 0x54, 0x3d,
  0xae, 0xaa, 0xda, 0xbc, 0xbd, 0x2d, 0x4d, 0xbe, 0x1b, 0xa3, 0x6f, 0x3d,
  0x25, 0x51, 0x49, 0x3e, 0x3b, 0x40, 0x90, 0xbd, 0xbe, 0x79, 0xea, 0x3d,
  0x62, 0x72, 0x91, 0xbd, 0xf6, 0xec, 0xb2, 0x3d, 0x5c, 0x1a, 0xd1, 0xbd,
  0xc1, 0x02, 0xed, 0xbd, 0x6c, 0x25, 0x10, 0xbe, 0xe2, 0x9d, 0xa8, 0xbd,
  0xdb, 0x77, 0x66, 0xbe, 0xbf, 0x6e, 0x20, 0x3e, 0x01, 0x6d, 0xc3, 0x3d,
  0x1f, 0x10, 0x8c, 0xbd, 0x9d, 0x0c, 0x1f, 0xbe, 0xa0, 0x5e, 0x53, 0xbe,
  0x58, 0x8e, 0x52, 0xbd, 0xa2, 0x1d, 0xdd, 0xbd, 0x70, 0x04, 0x39, 0x3e,
  0xf8, 0x83, 0x49, 0x3d, 0x12, 0x0c, 0x12, 0xbd, 0x73, 0xdb, 0x08, 0xbe,
  0x01, 0x07, 0xb0, 0xbd, 0x1d, 0xbd, 0x76, 0xbe, 0x67, 0x65, 0xa9, 0x3d,
  0x67, 0xe4, 0x4b, 0x3a, 0xcf, 0xee, 0xd9, 0xbd, 0x67, 0x30, 0x4e, 0x3d,
  0x2b, 0xab, 0x07, 0xbc, 0xb3, 0x4f, 0xce, 0x3d, 0x1e, 0x68, 0xab, 0x3d,
  0xe1, 0xb7, 0xb2, 0x3d, 0x6e, 0x60, 0x3d, 0xbd, 0xf4, 0xe5, 0x83, 0xbd,
  0x27, 0x5e, 0x73, 0x3e, 0xaf, 0x7e, 0x49, 0xbe, 0xed, 0x1d, 0xcf, 0x3c,
  0x83, 0xc9, 0xa4, 0xbd, 0xf0, 0x6f, 0x5a, 0xbe, 0xe4, 0x23, 0x5d, 0x3e,
  0x73, 0x03, 0x26, 0x3d, 0xb6, 0x39, 0x03, 0xbe, 0x8a, 0xf9, 0x3c, 0xbe,
  0x4c, 0xff, 0x9f, 0x3d, 0x55, 0x71, 0x06, 0xbe, 0x7b, 0x31, 0x4b, 0x3e,
  0x0b, 0x67, 0x7c, 0x3d, 0x0a, 0x7c, 0x6e, 0xbd, 0x73, 0x01, 0xd1, 0x3c,
  0xfe, 0x54, 0x58, 0xbe, 0x1c, 0x02, 0x55, 0x3e, 0x5e, 0xb5, 0x29, 0x3d,
  0xec, 0xc0, 0xa2, 0x3d, 0x6c, 0xb1, 0x1b, 0xbe, 0xe0, 0xcb, 0x44, 0x3d,
  0x66, 0x01, 0x17, 0x3e, 0xfc, 0x7f, 0x01, 0x3e, 0x85, 0x8c, 0xb4, 0xbd,
  0xfa, 0xc2, 0x7c, 0xbe, 0x23, 0xa7, 0xc4, 0x3c, 0xe0, 0x15, 0xb8, 0x3c,
  0x40, 0xe3, 0x86, 0x3d, 0x14, 0x21, 0xf5, 0xbb, 0x14, 0xa8, 0xf8, 0xbc,
  0x16, 0x63, 0xe9, 0x3d, 0x35, 0x0a, 0x5a, 0xbe, 0x1c, 0x0c, 0xcb, 0xbd,
  0xdf, 0xaf, 0xdc, 0x3d, 0xf3, 0x6a, 0x6f, 0xbe, 0x27, 0xaa, 0xe0, 0xbd,
  0x6d, 0xfe, 0xc2, 0x3d, 0x39, 0xba, 0x37, 0xbe, 0x07, 0x23, 0xea, 0xbd,
  0xc8, 0xba, 0x07, 0x3e, 0xd4, 0x14, 0x41, 0xbe, 0x6b, 0x03, 0xea, 0xba,
  0xf3, 0x6d, 0x6e, 0xbd, 0x07, 0xbd, 0x96, 0xbe, 0xee, 0x88, 0xa9, 0x3d,
  0x11, 0xaf, 0x39, 0xbe, 0xe0, 0xb4, 0x3c, 0x3c, 0x70, 0x3a, 0x61, 0xbe,
  0x1b, 0x49, 0x37, 0xbe, 0x33, 0x9d, 0xb5, 0x3c, 0x4c, 0x81, 0x94, 0xbd,
  0xe8, 0xf5, 0xc0, 0xbd, 0xdf, 0x40, 0x4e, 0xbd, 0xf2, 0x0e, 0x13, 0xbe,
  0x9e, 0x04, 0x59, 0xbd, 0xf8, 0x3a, 0x8a, 0xbe, 0x2a, 0x73, 0x52, 0xbe,
  0xcc, 0xf3, 0x24, 0xbe, 0x9f, 0xff, 0x9b, 0xbb, 0x5b, 0x10, 0x0d, 0xbf,
  0x55, 0x75, 0x9e, 0xbd, 0x15, 0xc9, 0xfb, 0xbd, 0xa5, 0x15, 0x70, 0x3e,
  0x49, 0x80, 0x97, 0xbe, 0xf6, 0xcf, 0x42, 0xbe, 0x28, 0x33, 0xfb, 0xbb,
  0x03, 0x88, 0x31, 0xbe, 0x1d, 0xfd, 0x9f, 0xbe, 0x74, 0xfa, 0xeb, 0xbd,
  0x62, 0x6f, 0xa4, 0xbe, 0x5a, 0xaa, 0x4e, 0xbe, 0xb8, 0xab, 0x0d, 0xbd,
  0x4c, 0x55, 0x51, 0x3d, 0x98, 0x94, 0x66, 0x3d, 0x7a, 0xe5, 0xd8, 0x3a,
  0x0e, 0x1b, 0xb0, 0xbe, 0x56, 0xc8, 0xab, 0xbe, 0x4a, 0xd3, 0xa6, 0x3e,
  0xfb, 0x71, 0x77, 0x3e, 0x49, 0x18, 0xbc, 0xbe, 0x1d, 0x9d, 0xc7, 0xbd,
  0xb8, 0xfb, 0xa3, 0xbe, 0x3e, 0x90, 0x38, 0xbe, 0x86, 0x1a, 0x3b, 0xbe,
  0x9d, 0xa3, 0xed, 0x3e, 0x67, 0x79, 0x34, 0xbe, 0x14, 0x75, 0x03, 0x3e,
  0x51, 0xb5, 0x11, 0x3d, 0xe7, 0x0b, 0x76, 0x3d, 0x44, 0x97, 0x13, 0x3d,
  0xce, 0x59, 0x24, 0x3d, 0x6f, 0x05, 0xb6, 0xbd, 0xd3, 0xd4, 0xfd, 0xbd,
  0x3e, 0x2c, 0x02, 0x3f, 0x13, 0xb1, 0x05, 0x3e, 0x8d, 0x12, 0x89, 0xbe,
  0x93, 0x3f, 0xff, 0x3e, 0xb0, 0xd5, 0x70, 0xbe, 0x44, 0x30, 0x13, 0xbe,
  0x78, 0x2f, 0x26, 0xbe, 0xf2, 0x9d, 0x07, 0x3f, 0x27, 0xe1, 0xd9, 0x3d,
  0xd0, 0xda, 0xb3, 0x3e, 0xfe, 0x70, 0x91, 0x3d, 0x31, 0x86, 0x24, 0x3d,
  0x84, 0xe0, 0x97, 0x3d, 0xca, 0x16, 0xca, 0xbc, 0xdd, 0xcc, 0x46, 0xbe,
  0x94, 0x63, 0xf8, 0x3d, 0x09, 0x58, 0xc1, 0x3e, 0x53, 0x08, 0xe9, 0x3d,
  0x8a, 0x07, 0xf3, 0xbd, 0xf1, 0xee, 0x0a, 0x3f, 0x66, 0x44, 0x35, 0xbe,
  0x52, 0xbb, 0x71, 0x3d, 0x82, 0xa8, 0xbf, 0xbd, 0x20, 0xec, 0x11, 0x3f,
  0x2d, 0x85, 0x7e, 0x3c, 0x0a, 0xc1, 0xdc, 0x3e, 0xde, 0xfc, 0x3d, 0x3d,
  0xa6, 0xe2, 0x65, 0x3d, 0x14, 0xfb, 0x31, 0x3e, 0xc8, 0x9f, 0x81, 0x3a,
  0x30, 0xe9, 0x61, 0xbe, 0x8f, 0xe9, 0x78, 0xbe, 0xeb, 0x47, 0x10, 0x3e,
  0x7f, 0x2e, 0x2b, 0x3e, 0x47, 0xb8, 0x77, 0xbe, 0x96, 0x46, 0x6f, 0x3d,
  0x1a, 0x88, 0x66, 0xbe, 0xc2, 0x92, 0xb9, 0xbd, 0xf6, 0xa3, 0x82, 0xbe,
  0x40, 0x76, 0xe3, 0x3e, 0xbe, 0x93, 0x33, 0xbe, 0xc5, 0xaf, 0x1a, 0x3e,
  0x62, 0x8c, 0x1c, 0x3e, 0x31, 0xd4, 0x60, 0x3d, 0x14, 0xbc, 0xfa, 0x3c,
  0x81, 0x0d, 0xfb, 0xbc, 0x69, 0xa0, 0x2a, 0xbe, 0xda, 0xf1, 0x32, 0xbe,
  0x9e, 0x5c, 0x4d, 0x3e, 0xd3, 0xc6, 0x0f, 0x3d, 0xf9, 0xea, 0x4f, 0xbf,
  0xba, 0x3e, 0x56, 0x3e, 0x2a, 0x60, 0xfc, 0xbe, 0x83, 0x67, 0x8a, 0xbd,
  0x23, 0x9c, 0x92, 0xbe, 0x40, 0xcf, 0xe8, 0x3e, 0xc6, 0xa8, 0xb1, 0xbd,
  0xbd, 0x34, 0x59, 0xbc, 0x17, 0xe9, 0xb5, 0x3d, 0x3a, 0x66, 0x00, 0x3d,
  0xdd, 0x97, 0x8e, 0x3c, 0x9f, 0x76, 0x3f, 0x3d, 0xc1, 0x2e, 0x3e, 0x3c,
  0x40, 0xbe, 0x06, 0xbe, 0x51, 0xc8, 0xcc, 0xbd, 0x33, 0xaf, 0xba, 0xbd,
  0xda, 0xd6, 0x7d, 0xbe, 0x41, 0x70, 0x85, 0xbe, 0x6a, 0x37, 0x25, 0xbe,
  0xe4, 0xb7, 0x89, 0xbc, 0x0a, 0x97, 0x92, 0xbd, 0x69, 0x60, 0x2e, 0x3d,
  0x91, 0x55, 0x00, 0xbe, 0xa6, 0x78, 0x60, 0x3e, 0x94, 0xf4, 0xdd, 0xbe,
  0xb7, 0x28, 0x7d, 0x3c, 0xd5, 0xd3, 0xa6, 0xbe, 0x7e, 0x4b, 0x24, 0x3c,
  0x7d, 0xea, 0xdb, 0x3d, 0xe1, 0xd9, 0x83, 0xbe, 0xdd, 0xe2, 0x7b, 0x3e,
  0x20, 0x62, 0x74, 0xbe, 0x47, 0x84, 0x34, 0x3e, 0xe1, 0x81, 0x31, 0xbb,
  0x6a, 0x63, 0x76, 0x3d, 0xc7, 0xaa, 0xc3, 0x3e, 0x24, 0xcc, 0x84, 0xbe,
  0x80, 0xa9, 0x9f, 0x3e, 0x46, 0x44, 0xb5, 0x3a, 0x1e, 0xf7, 0x87, 0x3e,
  0x07, 0xee, 0x86, 0xbc, 0x82, 0xd9, 0x4d, 0xbc, 0x70, 0x97, 0xc1, 0x3d,
  0xe6, 0xda, 0x92, 0xbc, 0xd3, 0x43, 0x8e, 0x3d, 0x53, 0x0d, 0x83, 0xbd,
  0x8d, 0x4a, 0x78, 0xbe, 0x69, 0xa8, 0x6f, 0x3c, 0x73, 0xfc, 0x00, 0xbf,
  0xeb, 0xd6, 0xa5, 0xbd, 0x11, 0xd9, 0xd0, 0x3e, 0xf0, 0x26, 0xeb, 0xbe,
  0x41, 0x92, 0x16, 0xbe, 0xf4, 0xff, 0x8b, 0xbe, 0x49, 0x3d, 0xa1, 0x3d,
  0x3d, 0xc7, 0x49, 0xbe, 0x71, 0xec, 0x80, 0xbd, 0xa5, 0x18, 0x3f, 0xbd,
  0x2e, 0x24, 0x43, 0xbe, 0x72, 0x57, 0x4e, 0xbd, 0x2c, 0x66, 0xc9, 0xbd,
  0xdd, 0x2e, 0x5d, 0xbe, 0x5d, 0x28, 0xa7, 0xbe, 0xbe, 0x34, 0x88, 0x3d,
  0xe9, 0x3a, 0x29, 0xbf, 0xab, 0x2e, 0x26, 0xbe, 0xe5, 0xbc, 0x85, 0xbd,
  0xcf, 0x71, 0xd0, 0xbe, 0x0e, 0xec, 0xd7, 0xbd, 0xf5, 0x07, 0x39, 0xbe,
  0x18, 0x3b, 0x0f, 0xbe, 0x43, 0x34, 0x01, 0xbe, 0x82, 0x89, 0x66, 0xbe,
  0x9a, 0xeb, 0x50, 0xbd, 0xab, 0xc9, 0x8c, 0xbe, 0xc2, 0x4e, 0xe1, 0xbb,
  0x52, 0x0f, 0xff, 0xbe, 0x3e, 0x72, 0x92, 0xbc, 0xc4, 0x99, 0xd4, 0xbd,
  0x5a, 0xd2, 0x66, 0xbd, 0xa3, 0x6c, 0x0b, 0xbf, 0xd7, 0xe4, 0x6b, 0xbc,
  0xd7, 0x56, 0x23, 0xbe, 0xc0, 0xc4, 0x8a, 0xbe, 0xbe, 0x93, 0x10, 0x3d,
  0x38, 0xbc, 0xfa, 0xbe, 0xd3, 0xc6, 0x59, 0xbe, 0xdd, 0xf4, 0xe9, 0xbd,
  0x33, 0xcf, 0x18, 0xbf, 0x54, 0x50, 0x7a, 0xbd, 0xfb, 0xdb, 0x99, 0xbe,
  0xa9, 0x28, 0xa7, 0xbd, 0x8c, 0x1a, 0xd3, 0xbe, 0x63, 0xe8, 0xd9, 0x3c,
  0xd8, 0xbb, 0x03, 0xbe, 0x85, 0xbb, 0xeb, 0xbb, 0x7e, 0xc2, 0x36, 0xbd,
  0xad, 0x07, 0x5c, 0xbe, 0x25, 0x94, 0x61, 0xbe, 0x26, 0x09, 0x16, 0xbb,
  0x44, 0x9f, 0x4e, 0xbe, 0xae, 0x23, 0x89, 0x3d, 0x30, 0xc7, 0x01, 0xbf,
  0x83, 0x0a, 0xdf, 0xbe, 0x5e, 0x46, 0xa0, 0xbe, 0x7f, 0x2d, 0x66, 0xbd,
  0x32, 0x32, 0x8f, 0xbd, 0x01, 0xc9, 0xb6, 0x3c, 0xb9, 0xf9, 0x18, 0xbe,
  0xf2, 0x61, 0xe0, 0x3c, 0x21, 0x25, 0x83, 0x3e, 0x1a, 0x65, 0x24, 0x3c,
  0xf3, 0x9d, 0x8d, 0x3d, 0x70, 0xbc, 0x8e, 0x3d, 0x77, 0xfe, 0xbd, 0x3d,
  0x91, 0x00, 0x6d, 0x3e, 0xe5, 0x48, 0x67, 0xbe, 0x43, 0xb1, 0x9b, 0x3e,
  0x7a, 0xd6, 0x87, 0xbe, 0xfc, 0x07, 0x91, 0x3e, 0xb8, 0x0f, 0x27, 0xbe,
  0xd9, 0x47, 0x1a, 0xbd, 0xef, 0x68, 0x70, 0x3e, 0x4d, 0xfa, 0x99, 0xbd,
  0xcd, 0x08, 0x47, 0xbc, 0x7c, 0x5f, 0xbc, 0xbd, 0x70, 0x8d, 0x18, 0xbe,
  0x26, 0xe0, 0x12, 0xbe, 0x69, 0x5b, 0x46, 0x3d, 0x9a, 0x00, 0x25, 0x3d,
  0x39, 0x42, 0x93, 0xbd, 0x4e, 0x95, 0x78, 0x3e, 0x05, 0x61, 0x0b, 0xbe,
  0x8e, 0xc0, 0x09, 0xbe, 0x77, 0x95, 0xe0, 0xbb, 0x05, 0xea, 0x7c, 0x3e,
  0xa8, 0xe2, 0x64, 0x3d, 0xc7, 0xd9, 0x97, 0x3c, 0x97, 0x08, 0xf4, 0x3d,
  0x30, 0x35, 0xd9, 0xbe, 0xfe, 0x5a, 0x8d, 0xbe, 0xef, 0xff, 0xcd, 0xbd,
  0x96, 0xaa, 0xf4, 0xbe, 0x17, 0x69, 0x0a, 0xbe, 0xd9, 0xe8, 0xab, 0x3e,
  0x3a, 0xc2, 0x88, 0xbe, 0xb9, 0xe8, 0x25, 0xbd, 0xc5, 0x8e, 0xd6, 0xbd,
  0xb3, 0x8e, 0xbf, 0xbd, 0xab, 0x09, 0x8a, 0xbe, 0x06, 0x1e, 0xe0, 0xbe,
  0x73, 0xfb, 0xeb, 0xbc, 0xf9, 0x43, 0x09, 0xbe, 0x21, 0xe4, 0xdc, 0xbe,
  0xd3, 0xf3, 0x01, 0xbf, 0x75, 0x62, 0x15, 0xbe, 0xd8, 0x1f, 0x4a, 0xbe,
  0x95, 0x94, 0xa2, 0xbe, 0x4c, 0x68, 0x95, 0x3d, 0x76, 0xea, 0xc6, 0x3b,
  0x8c, 0xd7, 0xa1, 0x3e, 0x6b, 0xaf, 0xc1, 0xbd, 0x26, 0xba, 0x86, 0x3e,
  0x27, 0x2f, 0xee, 0xbd, 0xc4, 0x16, 0xbf, 0xbb, 0xb7, 0x2b, 0x0d, 0xbd,
  0xfe, 0x25, 0xb8, 0xbd, 0x1c, 0x4a, 0x9d, 0xbd, 0x3a, 0x54, 0x16, 0xbd,
  0x1c, 0x9a, 0x15, 0xbf, 0x95, 0x3b, 0x1f, 0xbe, 0xc2, 0xc2, 0x7a, 0xbd,
  0xe6, 0x82, 0x76, 0x3e, 0x4b, 0x41, 0x8a, 0xbd, 0xb9, 0x13, 0x84, 0xbd,
  0x10, 0xf2, 0xe7, 0x3d, 0xc7, 0x8f, 0x94, 0x3e, 0x22, 0x74, 0x81, 0x3e,
  0x56, 0x92, 0x03, 0x3e, 0xb8, 0xf3, 0xc9, 0xbc, 0xdd, 0x33, 0x7c, 0x3c,
  0xb9, 0x47, 0x05, 0x3d, 0xb5, 0xfb, 0xc1, 0x3d, 0x9c, 0x6a, 0x34, 0x3e,
  0x3e, 0x58, 0x89, 0x3e, 0x23, 0x6d, 0x2d, 0xbf, 0xf3, 0xd6, 0xdc, 0xbd,
  0xfb, 0x69, 0x8c, 0xbd, 0xad, 0x24, 0x9c, 0x3e, 0x75, 0xc6, 0x1e, 0x3e,
  0x17, 0xd5, 0x78, 0xbe, 0x88, 0x75, 0x2d, 0xbc, 0x96, 0x88, 0x43, 0x3e,
  0xf6, 0x06, 0xee, 0x3d, 0x6d, 0x36, 0x5c, 0x3d, 0x41, 0xb4, 0xbc, 0xbd,
  0x8d, 0x76, 0xe8, 0xbc, 0x36, 0xf9, 0xb1, 0x3d, 0x06, 0x69, 0xfa, 0x3d,
  0xe9, 0xa8, 0x3c, 0xbd, 0x57, 0x7f, 0x28, 0x3e, 0xbd, 0xcb, 0x13, 0xbf,
  0x3b, 0x04, 0x42, 0xbe, 0xde, 0xc8, 0x2a, 0x3c, 0x53, 0x59, 0x28, 0x3e,
  0xbc, 0x57, 0x9a, 0xbd, 0xdf, 0x24, 0x7c, 0xbe, 0xbe, 0xc8, 0x6f, 0x3d,
  0x20, 0x58, 0x93, 0x3e, 0xf1, 0x96, 0x88, 0x3d, 0xbc, 0x43, 0x81, 0x3d,
  0xf5, 0x70, 0x05, 0x3e, 0x9c, 0x95, 0x4d, 0xbb, 0x15, 0x3c, 0x3a, 0xbe,
  0x0b, 0x38, 0xc8, 0x3d, 0x74, 0xfa, 0x88, 0x3d, 0x93, 0xf3, 0x06, 0xbd,
  0xf7, 0xff, 0x09, 0xbf, 0x24, 0x9e, 0xc9, 0xbe, 0x7d, 0xd3, 0x0d, 0x3e,
  0xc2, 0x1b, 0x23, 0x3e, 0x24, 0x15, 0x58, 0xbd, 0x51, 0x95, 0x97, 0xbe,
  0xa2, 0x06, 0x2a, 0xbc, 0x2e, 0x10, 0x85, 0x3e, 0xb3, 0xc2, 0xe4, 0x3d,
  0x06, 0x74, 0xd2, 0x3d, 0x51, 0x20, 0x1d, 0x3d, 0x3f, 0x11, 0x2a, 0x3d,
  0x10, 0xaa, 0xb0, 0xbc, 0x0b, 0xf1, 0x0d, 0x3e, 0x9e, 0xe6, 0xa4, 0xbc,
  0x54, 0xec, 0xbe, 0x3c, 0xfc, 0x48, 0x00, 0xbf, 0x68, 0x0a, 0x30, 0xbe,
  0xf3, 0x0f, 0xcc, 0x3d, 0xd4, 0xc1, 0x8d, 0xbd, 0x9b, 0xa0, 0x63, 0x3d,
  0x05, 0x06, 0xb0, 0xbd, 0x1d, 0x43, 0x94, 0xbc, 0xb2, 0x1a, 0x9f, 0x3d,
  0xca, 0x8f, 0xaa, 0x3d, 0xc3, 0x94, 0xc9, 0x3d, 0x91, 0xe3, 0x8e, 0xbe,
  0x5f, 0xc1, 0x8b, 0x3d, 0x99, 0xc1, 0x0f, 0xbe, 0xe7, 0x9d, 0xb0, 0x3d,
  0x3a, 0x6d, 0x98, 0xbd, 0x80, 0x6b, 0x2f, 0x3e, 0x57, 0x6a, 0x7b, 0xbe,
  0x24, 0xbd, 0x23, 0xbe, 0x32, 0xce, 0x3c, 0x3b, 0x96, 0xd3, 0xb4, 0x3e,
  0x1c, 0x16, 0xfc, 0x3d, 0x6d, 0xe1, 0x16, 0xbf, 0x30, 0xee, 0x88, 0xbd,
  0x4c, 0x3d, 0xa3, 0xbd, 0x02, 0xb1, 0xc3, 0x3e, 0x42, 0x87, 0xeb, 0xbe,
  0xc4, 0xac, 0xcd, 0xbe, 0x4b, 0xaa, 0x8e, 0x3d, 0xe3, 0x67, 0xff, 0xbe,
  0x4d, 0x91, 0x59, 0x3e, 0xe8, 0xe1, 0xe8, 0xbe, 0xb4, 0x0d, 0x6d, 0xbe,
  0x94, 0x5e, 0x49, 0xbc, 0xb4, 0x80, 0xc8, 0xbe, 0x0b, 0x8a, 0x5f, 0x3b,
  0xe3, 0x74, 0xba, 0x3e, 0x80, 0x69, 0xd6, 0x3e, 0x17, 0xef, 0xd6, 0xbe,
  0x3e, 0x61, 0x88, 0xbe, 0xa2, 0x93, 0x53, 0x3e, 0x20, 0x72, 0xc0, 0xbd,
  0x99, 0x01, 0x27, 0xbf, 0x71, 0x72, 0x8f, 0x3e, 0x0f, 0x3c, 0xa1, 0x3d,
  0x88, 0xb8, 0x86, 0x3d, 0x7b, 0xb3, 0x23, 0x3e, 0x81, 0xdc, 0xd2, 0x3c,
  0x13, 0x32, 0x0e, 0xbd, 0xaf, 0xed, 0x15, 0xbd, 0xeb, 0x45, 0xb4, 0xbe,
  0x58, 0x5e, 0xeb, 0xbd, 0x1f, 0x8e, 0xa1, 0x3e, 0x4e, 0x86, 0x01, 0x3f,
  0x55, 0x99, 0x94, 0xbe, 0xdc, 0x4a, 0xbe, 0xbe, 0x14, 0x41, 0x2b, 0x3e,
  0x11, 0x45, 0xaa, 0xbd, 0x81, 0x96, 0xc7, 0xbe, 0x8d, 0xbd, 0x94, 0x3e,
  0x53, 0x58, 0xfb, 0xbd, 0x42, 0x5c, 0x19, 0xbe, 0x8f, 0xc4, 0x03, 0x3c,
  0x94, 0xc0, 0x9e, 0x3e, 0xa3, 0x8f, 0x8d, 0x3d, 0x1a, 0x62, 0x1f, 0xbc,
  0xc1, 0xc9, 0xb0, 0xbd, 0x18, 0x01, 0xba, 0xbd, 0xc3, 0x96, 0xe1, 0x3e,
  0x25, 0x10, 0xdd, 0x3e, 0x87, 0x34, 0x88, 0xbe, 0x6a, 0x80, 0x9d, 0xbe,
  0xbc, 0xd8, 0x84, 0x3e, 0x06, 0x67, 0xa7, 0x3d, 0x27, 0x7d, 0xb2, 0xbe,
  0x37, 0x89, 0x3a, 0x3e, 0x3b, 0xc5, 0xdb, 0xbd, 0x5a, 0x29, 0xb1, 0xbd,
  0xfe, 0x0f, 0xcc, 0x3d, 0xe2, 0xa1, 0x12, 0x3e, 0x51, 0x0d, 0x48, 0x3e,
  0xf2, 0x22, 0x99, 0xbc, 0xe9, 0x19, 0x03, 0x3c, 0xa2, 0x2f, 0xc4, 0xbd,
  0xbf, 0x64, 0x3b, 0x3e, 0x3b, 0x43, 0xe8, 0x3e, 0xc9, 0xec, 0x29, 0xbf,
  0xb8, 0x83, 0x89, 0xbd, 0xaf, 0x6f, 0x47, 0x3e, 0x72, 0xc6, 0xb3, 0x3d,
  0xba, 0x68, 0x85, 0xbe, 0x03, 0x7b, 0x21, 0xbe, 0xdf, 0xa6, 0xb1, 0xbc,
  0xcc, 0xc3, 0x8c, 0xbe, 0xd0, 0x49, 0x1e, 0x3d, 0x80, 0x41, 0x14, 0xbe,
  0x24, 0xe5, 0x81, 0x3e, 0xd6, 0xad, 0x02, 0xbd, 0x67, 0xfa, 0x12, 0xbf,
  0xc9, 0x76, 0xd1, 0xbd, 0xde, 0x01, 0x61, 0x3e, 0x4d, 0xe2, 0xdc, 0x3e,
  0x91, 0x33, 0x1f, 0xbf, 0x0d, 0x3f, 0x62, 0xbe, 0x63, 0x85, 0x57, 0x3e,
  0xd1, 0x82, 0xc7, 0x3d, 0xfa, 0xa9, 0xc1, 0xbe, 0x12, 0xd0, 0x3e, 0xbe,
  0xca, 0x69, 0xb1, 0x3d, 0x6f, 0xa2, 0xd3, 0xbe, 0x27, 0x64, 0x03, 0x3d,
  0x11, 0x9c, 0xd0, 0xbe, 0x48, 0xaf, 0x0b, 0x3e, 0xa0, 0xf4, 0xa2, 0xbb,
  0xd5, 0x07, 0xf7, 0xbd, 0xfb, 0xbe, 0x91, 0xbd, 0x2d, 0xa0, 0xa4, 0xbc,
  0xe1, 0x0d, 0xe2, 0x3d, 0x6f, 0xf7, 0x7e, 0xbe, 0xfb, 0x3a, 0x46, 0xbd,
  0xf8, 0x0c, 0x4f, 0x3e, 0x46, 0x22, 0xba, 0x3e, 0x04, 0x4b, 0x9c, 0xbe,
  0x48, 0xb0, 0x83, 0x3a, 0xa1, 0x45, 0x66, 0xbc, 0xba, 0x47, 0x4d, 0xbe,
  0x44, 0xe9, 0xf9, 0xbc, 0xef, 0x93, 0x0f, 0xbe, 0x1e, 0xf8, 0x17, 0x3d,
  0x0f, 0x8a, 0x94, 0x3b, 0xfd, 0x8c, 0x76, 0xbc, 0x07, 0x05, 0xfc, 0x3d,
  0x32, 0xf0, 0x86, 0xbe, 0x78, 0x7d, 0x30, 0xbe, 0x45, 0x62, 0x9f, 0x3e,
  0x80, 0xa2, 0xe6, 0x3d, 0x51, 0x8b, 0xdd, 0xbc, 0xd6, 0xb5, 0x04, 0xbe,
  0x4a, 0xbc, 0x3c, 0x3e, 0x0d, 0x39, 0xb4, 0x3e, 0xbf, 0xc6, 0xa3, 0xbd,
  0xc6, 0xad, 0xb3, 0x3e, 0xed, 0xd6, 0xc5, 0xbd, 0xe4, 0xb9, 0x5a, 0x3e,
  0x36, 0xfa, 0x4b, 0x3d, 0xf9, 0xb1, 0xa9, 0x3c, 0xa7, 0xe3, 0xbc, 0x3d,
  0x51, 0x6e, 0x23, 0x3d, 0x85, 0xc8, 0x7e, 0xbd, 0x1e, 0x99, 0x59, 0xbe,
  0x82, 0xca, 0x3f, 0x3e, 0xb9, 0x10, 0xbb, 0x3d, 0x58, 0xf1, 0x17, 0xbd,
  0x7f, 0xde, 0x67, 0xbe, 0xbd, 0x79, 0x99, 0x3d, 0x96, 0xe2, 0x4a, 0x3e,
  0xcd, 0xec, 0xc1, 0xbd, 0xfc, 0x8a, 0xe1, 0x3d, 0x41, 0xf6, 0xa5, 0xbc,
  0x2b, 0x87, 0x3e, 0x3e, 0x20, 0xb3, 0xb8, 0xbd, 0xda, 0x7e, 0x44, 0x3d,
  0x26, 0xc7, 0x8c, 0x3d, 0x95, 0x4b, 0x83, 0x3c, 0x8c, 0xf7, 0x00, 0xbe,
  0x7b, 0x17, 0x55, 0xbe, 0x20, 0x4d, 0xd7, 0xbe, 0x38, 0xe6, 0xe4, 0x3c,
  0xab, 0x2e, 0xff, 0xbe, 0x65, 0xd1, 0x18, 0x3e, 0x44, 0x7a, 0xc4, 0xbd,
  0xae, 0x19, 0x19, 0xbe, 0x5d, 0x41, 0x80, 0x3d, 0xc9, 0x00, 0xad, 0xbe,
  0x5f, 0x03, 0xd1, 0x3d, 0x40, 0xc4, 0x9c, 0x3d, 0x90, 0x6d, 0x8d, 0xbe,
  0xba, 0xac, 0x4f, 0xbc, 0xab, 0x3f, 0xbf, 0xbc, 0x78, 0x44, 0x43, 0xbd,
  0x20, 0xf7, 0xa8, 0xbe, 0x71, 0x59, 0x4f, 0xbe, 0xe5, 0xdb, 0x44, 0xbe,
  0x11, 0xd2, 0x65, 0x3d, 0x9c, 0x91, 0x51, 0xbe, 0xe0, 0x1b, 0xe5, 0x3c,
  0x95, 0x48, 0x37, 0xbc, 0xbb, 0x1a, 0xc6, 0x3a, 0xef, 0xf9, 0x86, 0x3d,
  0x5d, 0x4b, 0x8b, 0xbc, 0x06, 0xd2, 0xff, 0xbb, 0x43, 0x18, 0x9a, 0xbe,
  0x6b, 0xc8, 0x8a, 0xbe, 0x09, 0xc2, 0x2f, 0x3a, 0xa9, 0x59, 0x9c, 0x3c,
  0x26, 0x9a, 0xd2, 0xbc, 0xe0, 0xa3, 0x1e, 0xbe, 0x47, 0xe7, 0x3c, 0xbe,
  0xc4, 0x10, 0x31, 0xbd, 0xdb, 0xf1, 0xb2, 0x3d, 0x78, 0xfe, 0xae, 0xbe,
  0x43, 0x5e, 0xf5, 0xbd, 0x39, 0x7d, 0xa3, 0xbc, 0xc4, 0x70, 0x22, 0xbe,
  0xb7, 0x5a, 0x59, 0xbd, 0x75, 0xad, 0x4c, 0xbe, 0x8d, 0x1b, 0x7b, 0x3d,
  0x87, 0x13, 0x57, 0xbe, 0x1b, 0x92, 0xb5, 0xbd, 0x10, 0x4a, 0x95, 0x3c,
  0xd5, 0x52, 0x22, 0xbd, 0x9b, 0xa2, 0xc0, 0xbc, 0x72, 0x88, 0x9a, 0xbe,
  0x90, 0x32, 0x49, 0xbe, 0x9e, 0x2f, 0x3d, 0xbe, 0xb9, 0x46, 0x06, 0x3b,
  0x88, 0xaa, 0xcd, 0xbe, 0xcd, 0xe1, 0x80, 0xbe, 0xe0, 0xda, 0xa6, 0xbd,
  0x13, 0x69, 0xad, 0xbe, 0x54, 0x11, 0x40, 0x3b, 0x5c, 0x38, 0x22, 0xbd,
  0x4e, 0x82, 0x0d, 0x3d, 0xfb, 0xe6, 0x8e, 0x3c, 0xd8, 0x18, 0x22, 0xbe,
  0x0c, 0xdf, 0x03, 0xbd, 0x5e, 0xa3, 0x96, 0x3c, 0x8e, 0x91, 0x88, 0x3c,
  0x49, 0xc6, 0xa1, 0x3d, 0x1e, 0x4b, 0x0d, 0xbe, 0xbb, 0x7e, 0x44, 0x3e,
  0xeb, 0xff, 0x31, 0x3b, 0x83, 0x0a, 0xc1, 0xbd, 0xc7, 0x3e, 0x75, 0xbe,
  0x4d, 0x59, 0x8d, 0x3c, 0x2a, 0x9e, 0x70, 0x3e, 0x0d, 0xe5, 0x44, 0x3d,
  0x44, 0x89, 0x4c, 0x3e, 0x4a, 0x22, 0xb3, 0xbc, 0xbe, 0xbc, 0x34, 0xbb,
  0xcf, 0x6d, 0x7c, 0xbe, 0x9c, 0xcd, 0x84, 0xba, 0x28, 0x63, 0xf4, 0x3d,
  0x01, 0x81, 0xe2, 0xbe, 0x3c, 0xb7, 0x6a, 0x3d, 0x4a, 0xf9, 0x27, 0x3e,
  0x16, 0x9f, 0x9b, 0xbe, 0xb7, 0x55, 0x79, 0xbe, 0x8b, 0xdd, 0x64, 0x3e,
  0xac, 0xbd, 0xd5, 0x3d, 0x74, 0xc1, 0xe7, 0x3d, 0x37, 0x7b, 0x25, 0xbd,
  0x14, 0xfb, 0x12, 0xbe, 0x29, 0x33, 0x8d, 0xbe, 0x20, 0xc7, 0xb8, 0xbe,
  0xc7, 0x9e, 0x72, 0xbd, 0xd8, 0x03, 0x9b, 0xbe, 0x48, 0xe5, 0xc9, 0xbe,
  0xfe, 0xc2, 0xe3, 0xbe, 0x8b, 0x6f, 0xd6, 0x3b, 0xe0, 0x23, 0x26, 0xbe,
  0xd7, 0x08, 0xc2, 0xbb, 0x18, 0x34, 0x4f, 0xbd, 0x3d, 0x61, 0xc8, 0xbd,
  0xc9, 0xe7, 0x88, 0x3e, 0xa9, 0xa2, 0x28, 0xbe, 0x37, 0x91, 0x9e, 0x3e,
  0x0d, 0x98, 0x8b, 0xbe, 0x4a, 0x6c, 0x9b, 0x3d, 0xe1, 0x89, 0x40, 0xbe,
  0x41, 0x32, 0x0a, 0xbe, 0xb1, 0x04, 0x0d, 0xbd, 0x2d, 0x07, 0x96, 0xbe,
  0x6d, 0x0a, 0x2b, 0xbe, 0x0a, 0xef, 0x1b, 0x3e, 0xf2, 0xf5, 0x27, 0x3e,
  0xb8, 0x4b, 0xcd, 0x3d, 0x50, 0x76, 0xa6, 0x3b, 0x09, 0xe8, 0x62, 0xbe,
  0x5a, 0xa2, 0xee, 0xbd, 0x2a, 0xa3, 0xd1, 0x3c, 0xca, 0xe2, 0x25, 0xbe,
  0xe2, 0xe5, 0x30, 0x3d, 0xb6, 0xa1, 0x21, 0xbe, 0x22, 0x96, 0x0b, 0x3e,
  0x4f, 0xe8, 0x4f, 0xbe, 0x1a, 0xca, 0x86, 0x3e, 0x23, 0x29, 0x37, 0xbe,
  0x65, 0x2e, 0x9a, 0xbc, 0xbf, 0xd0, 0x4a, 0xbe, 0xe1, 0xb0, 0xcf, 0xbd,
  0x93, 0x82, 0xe8, 0x3d, 0xa5, 0x72, 0x14, 0x3e, 0x26, 0xba, 0xce, 0x3d,
  0x74, 0x2e, 0x5f, 0xbd, 0x5b, 0xef, 0x2f, 0x3c, 0xd1, 0x73, 0x9a, 0xbe,
  0x13, 0x92, 0xa3, 0x3b, 0x08, 0xd2, 0xca, 0xbd, 0x0d, 0xfb, 0xc2, 0x3b,
  0x8a, 0xf2, 0xeb, 0xbd, 0x07, 0xbf, 0xcf, 0x3d, 0xee, 0x43, 0xea, 0x3d,
  0xf8, 0xac, 0x68, 0xbe, 0x2e, 0x10, 0x48, 0xbc, 0x55, 0x43, 0x80, 0xbe,
  0xca, 0x1c, 0x79, 0xbb, 0x04, 0xaf, 0x09, 0xbe, 0x83, 0x27, 0xf2, 0x3e,
  0xee, 0x3b, 0xe8, 0xbd, 0xcf, 0x2a, 0xd4, 0xbd, 0xba, 0x88, 0x0b, 0xbb,
  0x10, 0x05, 0x68, 0xbe, 0xd0, 0x08, 0xb4, 0xbd, 0xae, 0xfe, 0x76, 0xbe,
  0x7a, 0xce, 0x08, 0xbe, 0x26, 0xb2, 0x56, 0xbd, 0x56, 0x6d, 0x81, 0x3d,
  0xad, 0x7c, 0x36, 0x3d, 0xf4, 0xab, 0x9f, 0xbd, 0x74, 0xca, 0xaa, 0x3d,
  0xdc, 0x79, 0x1e, 0xbe, 0x0f, 0x18, 0x1b, 0xbd, 0xda, 0x23, 0x02, 0x3e,
  0x0c, 0x64, 0x88, 0x3e, 0x02, 0xbb, 0x8f, 0x39, 0x19, 0xcf, 0x49, 0xbd,
  0xb7, 0x38, 0x7c, 0xbc, 0xb0, 0x12, 0xa0, 0xbe, 0x2c, 0xbe, 0xc3, 0x3d,
  0x7b, 0xea, 0x64, 0xbe, 0xb9, 0x30, 0xa4, 0x3c, 0xeb, 0xb6, 0x42, 0x3c,
  0xea, 0xd4, 0x95, 0x3d, 0x58, 0xca, 0xe6, 0xbd, 0x40, 0x25, 0xea, 0x3a,
  0x26, 0xfd, 0x3c, 0x3e, 0x74, 0xfc, 0x27, 0xbd, 0x22, 0xf5, 0xca, 0x3d,
  0xec, 0x20, 0x2d, 0xbe, 0xeb, 0xba, 0x12, 0xbe, 0x16, 0xe5, 0x95, 0xbc,
  0xad, 0xc3, 0x93, 0xbd, 0x5a, 0xe7, 0x70, 0x3d, 0x37, 0x98, 0x6c, 0xbe,
  0xff, 0x9d, 0x27, 0xbc, 0x52, 0x0b, 0xa7, 0xbd, 0xaa, 0x51, 0x6d, 0x3c,
  0x38, 0x81, 0xd7, 0xbd, 0x5e, 0x23, 0x25, 0xbe, 0x58, 0x49, 0x16, 0xbe,
  0x69, 0xd1, 0xbe, 0xbd, 0x01, 0x4b, 0x06, 0xbe, 0x19, 0x53, 0x76, 0xbe,
  0x05, 0x61, 0xcc, 0xbc, 0x7f, 0x93, 0x80, 0x3b, 0x94, 0xde, 0x9a, 0xbe,
  0x38, 0xf9, 0x14, 0xbe, 0x2a, 0x33, 0x9e, 0xbe, 0xac, 0x03, 0x07, 0xbd,
  0x5e, 0x14, 0x12, 0xbf, 0xf3, 0xcb, 0xa0, 0xbd, 0x6a, 0xa2, 0x1c, 0xbd,
  0x4b, 0xa9, 0xa7, 0xbe, 0x26, 0x9d, 0xb2, 0xbc, 0xbc, 0x11, 0xa0, 0xbe,
  0x3e, 0x18, 0x07, 0xbe, 0x4e, 0x16, 0x34, 0xbe, 0x8e, 0x9b, 0x3a, 0xbc,
  0xd7, 0xa3, 0xb5, 0xbd, 0x6a, 0x82, 0xeb, 0xbd, 0x40, 0x96, 0x4a, 0xbd,
  0x4e, 0xaf, 0x17, 0xbe, 0x21, 0x0b, 0x40, 0xbe, 0xbb, 0x96, 0x78, 0x3d,
  0x1b, 0xd1, 0x2b, 0x3d, 0x19, 0xa0, 0xab, 0xbe, 0xb0, 0x15, 0xf6, 0xbd,
  0x34, 0x84, 0x87, 0xbe, 0xcf, 0x77, 0x11, 0xbe, 0x1d, 0x73, 0x59, 0xbe,
  0x49, 0xc7, 0x07, 0x3d, 0x16, 0x34, 0xa2, 0xbe, 0x9c, 0xec, 0x42, 0x3e,
  0xe6, 0xd9, 0xc3, 0xbd, 0x4c, 0x98, 0x5a, 0xbd, 0x9c, 0x37, 0xe6, 0xbd,
  0xd5, 0x5c, 0x89, 0xbd, 0xc9, 0x80, 0xe0, 0xbe, 0x06, 0xf8, 0x25, 0xbe,
  0xb2, 0xc9, 0x86, 0xbd, 0xe2, 0xdc, 0xb1, 0xbd, 0x6f, 0xba, 0x8d, 0xbe,
  0x2f, 0xa5, 0xec, 0x3d, 0xce, 0xd1, 0x84, 0x3d, 0xda, 0xd9, 0x4d, 0xbe,
  0xdb, 0x37, 0xdd, 0x3c, 0x2b, 0x62, 0xab, 0x3d, 0xfb, 0x1d, 0x34, 0xbe,
  0xe7, 0x3e, 0x90, 0x3d, 0x72, 0x81, 0xb9, 0x3d, 0xc4, 0x67, 0x9f, 0x36,
  0xf0, 0x18, 0xe0, 0xbd, 0xfe, 0x2d, 0x20, 0xbd, 0xe7, 0x4c, 0xa2, 0xbe,
  0x94, 0xd9, 0x5d, 0xbb, 0xed, 0x39, 0x39, 0xbe, 0x72, 0x8c, 0x6b, 0x3d,
  0x5e, 0xb1, 0x48, 0xbf, 0x77, 0x7b, 0x13, 0xbe, 0x1c, 0xd3, 0x09, 0x3e,
  0xb6, 0xf6, 0x4e, 0xbe, 0x36, 0xcf, 0x2d, 0xbe, 0xf3, 0xfe, 0xb5, 0xbe,
  0x5e, 0x2d, 0x99, 0xbe, 0x8e, 0xea, 0x1b, 0xbe, 0x9a, 0x9f, 0x66, 0xbc,
  0x0b, 0x1d, 0xad, 0xbc, 0x36, 0xbe, 0x1a, 0xbe, 0x1a, 0xb0, 0xae, 0xbd,
  0xd6, 0x4f, 0xb3, 0xbe, 0xb8, 0x02, 0xd2, 0x3d, 0xb9, 0x25, 0xd2, 0xbc,
  0x5b, 0x24, 0x30, 0xbd, 0xfc, 0x4f, 0x5e, 0x3e, 0xed, 0x41, 0x9a, 0x3e,
  0xbb, 0x7f, 0xd7, 0x3d, 0x97, 0x05, 0xaa, 0x3e, 0xd9, 0xbe, 0xb9, 0xbd,
  0xde, 0x4b, 0x4a, 0x3e, 0x0b, 0x52, 0xf2, 0xbe, 0x58, 0x37, 0x3f, 0x3e,
  0x6b, 0x0b, 0xbc, 0xbe, 0xbb, 0xdd, 0x6d, 0xbd, 0x3d, 0xb7, 0x0f, 0x3e,
  0xf4, 0x63, 0xfb, 0x3b, 0x98, 0x3e, 0xa2, 0xbe, 0x60, 0x24, 0x7f, 0xbd,
  0x4b, 0xee, 0x12, 0x3e, 0x4a, 0x36, 0x0a, 0xbe, 0x98, 0x17, 0x60, 0x3b,
  0x21, 0x64, 0x16, 0xbd, 0xf1, 0x4d, 0xbc, 0x3e, 0xc5, 0xfd, 0x7b, 0x3e,
  0x4e, 0x29, 0x05, 0x3d, 0x40, 0xb6, 0x75, 0xbc, 0x59, 0xa0, 0x43, 0xbe,
  0xd6, 0x14, 0x92, 0x3e, 0x32, 0x67, 0x3a, 0xbe, 0x62, 0x4a, 0xed, 0xbc,
  0xe0, 0x3e, 0x09, 0x3e, 0xac, 0x48, 0x44, 0x3e, 0x4f, 0x45, 0xc1, 0x3a,
  0xfa, 0x11, 0x1a, 0xbe, 0xb2, 0x6c, 0x62, 0x3e, 0x1f, 0x73, 0xa5, 0xbd,
  0xbf, 0x8f, 0x54, 0x3c, 0xfa, 0x44, 0x0b, 0xbe, 0x56, 0x7f, 0x49, 0x3e,
  0x57, 0xbe, 0xd2, 0x3b, 0x90, 0x91, 0xdd, 0x3c, 0x6d, 0x79, 0xbd, 0x3c,
  0x26, 0x31, 0x8a, 0x3c, 0x39, 0xa3, 0xcd, 0x3c, 0x72, 0xc6, 0x2b, 0x3d,
  0x25, 0xc8, 0x42, 0xbd, 0x4f, 0x27, 0xcc, 0x3e, 0x76, 0xe0, 0xb1, 0x3c,
  0x04, 0x76, 0xda, 0xbd, 0x9f, 0x4c, 0x04, 0x3e, 0x77, 0xbb, 0xc5, 0x3c,
  0xda, 0x34, 0x13, 0x3d, 0x0b, 0x59, 0x89, 0xbd, 0x43, 0xfb, 0x23, 0xbd,
  0x50, 0x56, 0x77, 0xbe, 0x30, 0xe2, 0xf1, 0x3c, 0x5a, 0x74, 0xd6, 0xbe,
  0x20, 0x80, 0x02, 0x3d, 0x3f, 0x96, 0x61, 0xbe, 0x65, 0x0c, 0x4f, 0xbe,
  0x99, 0x1a, 0xbd, 0xba, 0xf1, 0x5d, 0x6e, 0xbe, 0x3d, 0x8d, 0x74, 0xbe,
  0x5f, 0x38, 0x28, 0x3c, 0x3a, 0x93, 0xd0, 0xbd, 0xa8, 0xb9, 0x31, 0x3d,
  0x9c, 0xf2, 0x90, 0x3d, 0x37, 0x49, 0xa0, 0x3d, 0xf0, 0xa3, 0xb4, 0x3d,
  0x2f, 0x59, 0xd0, 0x3d, 0xad, 0x80, 0xf7, 0x3d, 0xf2, 0x31, 0x66, 0x3c,
  0x5c, 0x51, 0x10, 0x3d, 0x4c, 0xfd, 0xfc, 0x3d, 0x10, 0xce, 0x55, 0xbd,
  0x13, 0xef, 0x00, 0xbe, 0x28, 0x5a, 0x7a, 0xbe, 0xe8, 0x39, 0x46, 0xbe,
  0x68, 0x7b, 0x11, 0x3e, 0xcb, 0x9a, 0xc4, 0xbd, 0x60, 0xb8, 0xd2, 0xbd,
  0x76, 0xac, 0x2c, 0xbe, 0x8a, 0x73, 0x44, 0x3e, 0xbd, 0x09, 0xa9, 0x3d,
  0x0d, 0xf5, 0x87, 0x3d, 0xa2, 0x7d, 0x2f, 0x3e, 0x48, 0x04, 0xa1, 0xbd,
  0xd6, 0xb4, 0x9c, 0xbc, 0xe5, 0x24, 0x93, 0xbe, 0x3c, 0x82, 0x30, 0x3e,
  0x82, 0xd2, 0x46, 0xbd, 0x0f, 0xb6, 0x39, 0x3e, 0x60, 0x33, 0x4d, 0x3d,
  0x31, 0xf3, 0x95, 0xbe, 0x3e, 0x33, 0xf9, 0x3c, 0x5e, 0x85, 0x01, 0xbe,
  0x4a, 0x41, 0x0f, 0x3d, 0x42, 0xd0, 0x87, 0xbd, 0x0f, 0x4a, 0x34, 0x3e,
  0x24, 0x34, 0x27, 0xbc, 0x55, 0x24, 0x1c, 0x3e, 0x12, 0x88, 0x0f, 0xbe,
  0xec, 0x84, 0x3f, 0xbc, 0xe1, 0xac, 0x3e, 0xbe, 0x86, 0xba, 0x81, 0xbe,
  0xab, 0x29, 0x15, 0xbe, 0xc0, 0x1e, 0x97, 0xbe, 0x89, 0x91, 0x2e, 0x3e,
  0x30, 0xbf, 0x66, 0xbe, 0xc7, 0xac, 0xcc, 0x3d, 0x55, 0xe9, 0xd9, 0x3d,
  0x34, 0x3a, 0x39, 0xbe, 0x09, 0x6e, 0xa9, 0xbd, 0x8e, 0x82, 0x56, 0x3d,
  0x9a, 0x93, 0x98, 0xbd, 0x06, 0xd0, 0x0c, 0xbe, 0x83, 0x3e, 0x04, 0x3d,
  0x40, 0xb9, 0x5f, 0xbb, 0xe0, 0x79, 0x2a, 0xbe, 0x6c, 0x69, 0x7e, 0x3d,
  0x8f, 0x76, 0xbf, 0xbd, 0xc8, 0xed, 0x46, 0xbe, 0xf0, 0x53, 0x89, 0xbe,
  0x14, 0x72, 0xe6, 0xbd, 0x2c, 0x01, 0x33, 0xbc, 0x6f, 0xd0, 0x56, 0xbe,
  0x63, 0x83, 0x3a, 0x3e, 0x4e, 0x0d, 0xa3, 0x3c, 0x5d, 0xf0, 0x32, 0x3c,
  0x75, 0x8b, 0x93, 0xbd, 0xf0, 0x2a, 0xd3, 0x3d, 0xfe, 0x3b, 0x58, 0xbe,
  0x7b, 0xcd, 0x8f, 0xbd, 0xfc, 0x56, 0x1f, 0xbe, 0x76, 0xb3, 0xef, 0xbd,
  0x84, 0x12, 0x43, 0xbe, 0xc0, 0x9e, 0x63, 0xbe, 0xdf, 0xca, 0x02, 0xbe,
  0xc8, 0xdb, 0x06, 0x3b, 0xe3, 0xd0, 0x81, 0x3d, 0x9c, 0xa8, 0xcd, 0xbd,
  0x95, 0x71, 0x9b, 0xbd, 0xa9, 0xfc, 0xc4, 0x3d, 0x70, 0x6a, 0x69, 0xbc,
  0xaa, 0x35, 0x35, 0x3b, 0x71, 0xdd, 0x41, 0xbe, 0xed, 0x9b, 0x69, 0x3d,
  0x3e, 0xd1, 0x5d, 0xbe, 0xd9, 0xa1, 0x67, 0xbe, 0x11, 0x44, 0x96, 0x3d,
  0x56, 0xea, 0x78, 0xbd, 0x0b, 0x69, 0x24, 0xbd, 0xda, 0x1f, 0x96, 0xbe,
  0xa5, 0xdd, 0x97, 0x3d, 0x97, 0x6c, 0x97, 0xbe, 0xae, 0xa8, 0xc9, 0xbd,
  0xdb, 0xb7, 0x8b, 0x3d, 0x64, 0x70, 0x2b, 0xbe, 0x6f, 0xe5, 0x52, 0xbe,
  0xef, 0xdb, 0xb4, 0xbe, 0x33, 0x35, 0x2b, 0xbe, 0x20, 0xae, 0x9d, 0x3d,
  0x3d, 0xe1, 0xc1, 0xbe, 0x35, 0x03, 0x04, 0x3d, 0x71, 0x94, 0x5c, 0x3e,
  0x1d, 0x64, 0x14, 0xbe, 0xd6, 0x4f, 0xca, 0x3c, 0x36, 0xa6, 0xcc, 0xbc,
  0x50, 0x53, 0xf9, 0xbd, 0x52, 0x9c, 0x3d, 0xbe, 0x4b, 0xc3, 0x9f, 0xbe,
  0x5c, 0xcd, 0x46, 0xbd, 0x4e, 0xa8, 0xe7, 0xbd, 0x2a, 0x4d, 0xd8, 0xbe,
  0x9f, 0x3e, 0xf4, 0xbe, 0x55, 0xc4, 0x17, 0x3d, 0x7f, 0xa3, 0x82, 0xbe,
  0x2b, 0x42, 0x4d, 0xbe, 0xd7, 0xf7, 0x3c, 0xbb, 0x72, 0x73, 0xaf, 0x3d,
  0xe7, 0xeb, 0x86, 0x3e, 0x06, 0xb7, 0x16, 0x3c, 0xda, 0x67, 0x5e, 0x3e,
  0x27, 0x77, 0xe3, 0xbd, 0x2a, 0xfa, 0xc2, 0x3c, 0x5c, 0xaa, 0x15, 0xbe,
  0xa4, 0x58, 0xd6, 0xba, 0x3d, 0x1d, 0x82, 0xbe, 0x1b, 0x01, 0xc1, 0xbb,
  0x72, 0x02, 0x01, 0xbf, 0x71, 0x41, 0xbe, 0xbc, 0x51, 0x81, 0xbf, 0x3c,
  0xc8, 0xeb, 0x14, 0x3e, 0x78, 0x69, 0x17, 0x3d, 0x77, 0xf1, 0xc1, 0xbd,
  0x59, 0xfb, 0x00, 0x3e, 0xaa, 0x1b, 0x6d, 0x3e, 0xd7, 0xfb, 0x0e, 0x3e,
  0x16, 0xed, 0x97, 0x3d, 0xb0, 0xc8, 0x63, 0xbe, 0xda, 0x7b, 0xf8, 0xbc,
  0x65, 0x33, 0x26, 0xbd, 0x06, 0xcb, 0x43, 0x3e, 0xa7, 0xad, 0x3e, 0x3e,
  0x87, 0xa2, 0x43, 0x3e, 0x68, 0x32, 0x2d, 0xbf, 0x82, 0xc5, 0x44, 0xbe,
  0xfb, 0x22, 0x78, 0x3d, 0x11, 0xe0, 0x55, 0x3e, 0x02, 0x4a, 0x45, 0x3e,
  0xb5, 0x9d, 0x08, 0xbe, 0xc8, 0xf5, 0xc6, 0x3d, 0x24, 0xe1, 0x6d, 0x3e,
  0x94, 0xe9, 0x31, 0x3e, 0x0c, 0x5f, 0xb4, 0x3d, 0xa7, 0xc5, 0x9c, 0xbd,
  0xbf, 0xc0, 0xb5, 0xbb, 0x5d, 0x43, 0x5c, 0xbd, 0x96, 0xdf, 0x1d, 0x3e,
  0x1d, 0xc3, 0x80, 0xbe, 0x49, 0x92, 0x4b, 0xbd, 0xe9, 0x31, 0x1e, 0xbf,
  0x9d, 0xc6, 0x14, 0xbe, 0xee, 0xcd, 0x04, 0x3e, 0xc5, 0xb3, 0x70, 0x3d,
  0x51, 0x25, 0x3f, 0x3c, 0xbc, 0x6a, 0x12, 0xbd, 0x4c, 0x7d, 0x21, 0x3d,
  0x14, 0x30, 0x5e, 0x3e, 0xba, 0x7f, 0xdd, 0xbd, 0xb9, 0xa0, 0x0f, 0x3e,
  0xef, 0xd1, 0x09, 0x3e, 0x75, 0x76, 0xf9, 0x39, 0xdf, 0x1b, 0x49, 0xbe,
  0x02, 0x68, 0xd9, 0x3d, 0xe6, 0x9e, 0x80, 0xbc, 0xb0, 0x72, 0x5d, 0xbc,
  0xd5, 0xcb, 0x00, 0xbf, 0x44, 0x14, 0x40, 0x3b, 0x7a, 0xac, 0xa0, 0x3d,
  0x95, 0x3d, 0xc1, 0x3d, 0xbc, 0x04, 0x74, 0xbb, 0xbf, 0x17, 0xcc, 0xbd,
  0x4a, 0x49, 0x79, 0x3d, 0x00, 0xf1, 0x33, 0x3e, 0x4b, 0x8e, 0x82, 0x3d,
  0xfd, 0x74, 0xb0, 0x3d, 0x8a, 0x70, 0x00, 0xbe, 0xce, 0x8a, 0xb8, 0x3c,
  0xaf, 0xbd, 0x59, 0x3d, 0xde, 0x83, 0xf3, 0x3d, 0x58, 0xe8, 0xa9, 0xbd,
  0x92, 0xab, 0x88, 0xb9, 0x19, 0x2d, 0xff, 0xbe, 0x62, 0x64, 0xfc, 0xbb,
  0x1a, 0xca, 0xf2, 0xbc, 0x40, 0x20, 0x9c, 0x3c, 0x4c, 0x35, 0xe8, 0x3c,
  0xbd, 0x88, 0xf6, 0x3c, 0x7d, 0xc9, 0x2b, 0xbc, 0x99, 0x8b, 0xcd, 0xbd,
  0xa8, 0x8e, 0x33, 0xbd, 0x70, 0x1f, 0x12, 0x3e, 0x7e, 0x22, 0x13, 0xbe,
  0x8e, 0xd7, 0xe8, 0x3c, 0xd4, 0x0f, 0x53, 0x3d, 0x28, 0xba, 0xaa, 0x3d,
  0xb7, 0x6f, 0xec, 0xbd, 0x81, 0xca, 0xc5, 0x3d, 0x6d, 0x71, 0xd6, 0xbe,
  0x52, 0xce, 0xf5, 0xbd, 0x55, 0x36, 0x71, 0xbe, 0x29, 0xc0, 0x90, 0xbc,
  0xfd, 0x81, 0xd4, 0x3d, 0xd7, 0x30, 0x83, 0xbe, 0x4f, 0x8b, 0xbc, 0xbd,
  0x60, 0xee, 0x5a, 0x3e, 0x67, 0xc7, 0x6b, 0xbe, 0xdd, 0xb6, 0xdc, 0xbd,
  0x39, 0x32, 0xe4, 0x3c, 0x5f, 0x40, 0xfe, 0xbd, 0x60, 0x0b, 0xea, 0x3d,
  0xb5, 0xa0, 0x62, 0xbe, 0xb4, 0x92, 0xa8, 0xbb, 0xf3, 0xab, 0x3a, 0xbd,
  0x3f, 0xdf, 0xc1, 0xbe, 0x0b, 0x15, 0x79, 0xbe, 0x0d, 0x2c, 0x93, 0xbe,
  0xe3, 0x5a, 0x22, 0xbe, 0xbb, 0x7a, 0x4b, 0xbe, 0x07, 0x7b, 0x91, 0xbe,
  0xd9, 0x63, 0x3f, 0x3e, 0x6b, 0x09, 0x99, 0x3e, 0x55, 0x87, 0x29, 0xbb,
  0x42, 0x9f, 0x97, 0x3e, 0x58, 0xc1, 0xd5, 0x3c, 0xa4, 0x4a, 0x0f, 0xbe,
  0x7f, 0xe0, 0x09, 0x3e, 0x69, 0x77, 0xcd, 0xbe, 0xf6, 0x8d, 0xb5, 0xbd,
  0xd7, 0x87, 0x99, 0xbc, 0xe8, 0x60, 0x6d, 0xbe, 0x2d, 0x08, 0x58, 0x3d,
  0x6c, 0x0c, 0x9a, 0xbd, 0x25, 0xc7, 0x31, 0xbe, 0x9e, 0x48, 0x6c, 0xbd,
  0x92, 0x28, 0x78, 0xbe, 0x04, 0x3f, 0x55, 0xbd, 0x93, 0xb7, 0x8e, 0x3e,
  0x14, 0x6b, 0x23, 0x3d, 0x86, 0x81, 0x2a, 0x3e, 0xbf, 0xd9, 0x5e, 0xbe,
  0xbc, 0xb7, 0x91, 0x3d, 0xae, 0xc7, 0x4d, 0x3e, 0x4b, 0xaf, 0xa7, 0xbe,
  0x13, 0xdf, 0x1b, 0x3e, 0x28, 0x6b, 0x05, 0x3e, 0xe3, 0x31, 0x83, 0xbe,
  0xdf, 0xcc, 0x5d, 0xbd, 0x5b, 0xdf, 0xf9, 0x3d, 0x4a, 0x60, 0x67, 0xbe,
  0x66, 0xc3, 0xec, 0xbb, 0x6d, 0xf5, 0x86, 0xbe, 0xcf, 0xe5, 0x0d, 0xbe,
  0x3a, 0xef, 0x38, 0x3e, 0x5f, 0x8e, 0x48, 0x3e, 0x28, 0xc9, 0x94, 0x3e,
  0xf2, 0xd8, 0x83, 0x3d, 0xce, 0xca, 0xc9, 0x3d, 0xc2, 0x76, 0x49, 0xbe,
  0xe2, 0x71, 0xd6, 0x3d, 0xcf, 0x67, 0xad, 0xbc, 0xeb, 0x07, 0xb7, 0xbd,
  0xb4, 0xc3, 0x8b, 0xbe, 0xe4, 0x51, 0x8d, 0x3d, 0x9c, 0x3b, 0x73, 0x3e,
  0x9f, 0x3f, 0xcb, 0x3d, 0xe5, 0x48, 0x04, 0xbd, 0x08, 0x4a, 0x17, 0x3d,
  0x51, 0xb0, 0xc7, 0xbd, 0x8a, 0xed, 0xc6, 0x3d, 0xf3, 0x8a, 0x58, 0xbe,
  0x5b, 0xd9, 0x7d, 0x3e, 0x08, 0x63, 0xfd, 0x3d, 0x9d, 0x92, 0xf2, 0x3c,
  0xba, 0x84, 0xe3, 0x3d, 0xc2, 0x0e, 0x22, 0x3e, 0x95, 0xe1, 0x0c, 0xbb,
  0xf7, 0xfa, 0x3d, 0xbd, 0x06, 0x16, 0x82, 0xbe, 0x51, 0x6f, 0x62, 0xbe,
  0xb7, 0x38, 0x5e, 0x3e, 0x8c, 0x22, 0xcb, 0x3d, 0xa4, 0xd9, 0x30, 0x3b,
  0xa3, 0xf6, 0x19, 0xbe, 0x49, 0xb8, 0x8c, 0xbd, 0x48, 0xe9, 0xa5, 0xbd,
  0xf8, 0xdd, 0x56, 0x3d, 0x5f, 0x50, 0xc5, 0xbd, 0x33, 0xa2, 0xba, 0xb9,
  0x3a, 0x15, 0x61, 0x3d, 0x03, 0xb5, 0x69, 0xbe, 0x54, 0xd1, 0x8a, 0x3e,
  0x36, 0x29, 0xad, 0xbd, 0xae, 0x3d, 0x92, 0x3d, 0xea, 0x43, 0xa2, 0xbe,
  0x73, 0x0d, 0x54, 0xbe, 0x5e, 0xf1, 0xe8, 0x3b, 0x5f, 0xa2, 0x5a, 0x3d,
  0x98, 0xaa, 0x8b, 0x3d, 0xc6, 0x22, 0x55, 0xbe, 0xf9, 0xb1, 0x32, 0x3e,
  0xe0, 0xfc, 0xe2, 0xbe, 0xa7, 0x86, 0x5d, 0x3e, 0xfc, 0xde, 0xcf, 0xbe,
  0x19, 0x95, 0x3a, 0xbd, 0x80, 0xa1, 0x56, 0xbd, 0x6a, 0xb6, 0x29, 0xbe,
  0x0b, 0x96, 0x05, 0x3d, 0xb0, 0x93, 0x08, 0xbd, 0x57, 0x05, 0x16, 0x3e,
  0xea, 0xcf, 0xc5, 0xbe, 0xeb, 0x0c, 0x99, 0xbc, 0x6d, 0x97, 0x75, 0xbe,
  0xbb, 0x52, 0x9c, 0x3d, 0x5e, 0x8b, 0x73, 0xbd, 0x5a, 0x3a, 0xe8, 0x3c,
  0xf3, 0xdf, 0x90, 0xbc, 0xce, 0x1d, 0x27, 0x3d, 0xb6, 0xd3, 0x48, 0xbe,
  0xf9, 0x83, 0x72, 0xbe, 0x66, 0x7a, 0x14, 0xbe, 0x0d, 0x6a, 0x64, 0xbe,
  0x4c, 0x03, 0xcf, 0x3d, 0x06, 0x49, 0x8a, 0xbd, 0xb1, 0xaf, 0x21, 0xbe,
  0x03, 0xea, 0x5f, 0xbe, 0xab, 0xe5, 0x5a, 0xbd, 0xab, 0x27, 0x67, 0xbd,
  0xa1, 0xa6, 0xb7, 0x3d, 0xcb, 0x52, 0xed, 0xbd, 0x95, 0x67, 0x0f, 0x3e,
  0x98, 0x34, 0x15, 0xbe, 0xcb, 0x54, 0x83, 0xbe, 0xcd, 0x7d, 0x20, 0x3e,
  0x00, 0xe5, 0xd2, 0xbd, 0x32, 0x69, 0x48, 0x3d, 0xe6, 0xe9, 0x99, 0xbd,
  0x4b, 0xed, 0xee, 0xbc, 0x0c, 0x05, 0x30, 0x3e, 0xed, 0x47, 0x10, 0xbd,
  0x04, 0xea, 0x19, 0xbe, 0xd8, 0x09, 0x03, 0x3d, 0x07, 0x92, 0x37, 0xbe,
  0xc6, 0xee, 0x18, 0xbe, 0xab, 0x02, 0x58, 0xbe, 0x1d, 0xba, 0x22, 0x3d,
  0x67, 0xa3, 0x88, 0x3d, 0xd8, 0xa1, 0x5f, 0xbe, 0x66, 0x17, 0x88, 0x3d,
  0xc1, 0xb8, 0x14, 0xbe, 0x88, 0x96, 0x20, 0xbe, 0x1d, 0x49, 0x13, 0xbe,
  0x0a, 0xb5, 0x74, 0xbe, 0xcd, 0x73, 0x15, 0xbe, 0x0a, 0xe6, 0x92, 0x3d,
  0xaa, 0x21, 0x32, 0xbe, 0x24, 0xa5, 0x35, 0xbe, 0x0f, 0x06, 0x5e, 0xbe,
  0x2c, 0x3a, 0xce, 0xbc, 0x9e, 0xd5, 0x35, 0x3e, 0x92, 0xf3, 0x52, 0xbe,
  0x82, 0xdb, 0x09, 0xbe, 0xf0, 0x18, 0x2a, 0x3e, 0x78, 0xbe, 0x72, 0xbd,
  0x4e, 0x43, 0x02, 0x3e, 0x45, 0x74, 0x80, 0x3d, 0x6a, 0x84, 0xbc, 0x3d,
  0x2d, 0xb6, 0xa6, 0xbd, 0x99, 0x17, 0xbb, 0x3d, 0x61, 0x51, 0xd3, 0xbc,
  0x9a, 0x63, 0x92, 0x3d, 0x87, 0xf0, 0x84, 0x3d, 0xaa, 0x57, 0xfe, 0xbd,
  0x17, 0x00, 0x46, 0xbd, 0xfe, 0x51, 0xd2, 0xbb, 0xe1, 0x6c, 0x6c, 0xbe,
  0x67, 0xac, 0xc4, 0xbc, 0xc2, 0x09, 0xca, 0xbd, 0x99, 0x4b, 0x01, 0x3e,
  0x83, 0x52, 0x39, 0xbe, 0xc7, 0xe0, 0x40, 0xbd, 0x17, 0x09, 0xc9, 0xbd,
  0x8d, 0x92, 0x1f, 0xbd, 0xe4, 0x18, 0xdf, 0xbd, 0x57, 0x3e, 0x0f, 0x3e,
  0x96, 0xde, 0xec, 0xbd, 0x1d, 0x7e, 0x17, 0x3e, 0xbe, 0xeb, 0x02, 0xbd,
  0x9e, 0x94, 0xb4, 0xbd, 0x9c, 0xeb, 0x47, 0xbe, 0x02, 0x25, 0xf9, 0xbd,
  0x20, 0xf5, 0x09, 0xbd, 0xb1, 0x34, 0x13, 0xbe, 0x39, 0xdd, 0x69, 0xbe,
  0x6a, 0xac, 0x13, 0x3d, 0x52, 0x7d, 0x63, 0x3d, 0x67, 0xdb, 0x20, 0xbd,
  0xa1, 0xf6, 0xa9, 0xbc, 0x63, 0x7b, 0x24, 0xbd, 0xe4, 0x04, 0x04, 0xbd,
  0x72, 0xf9, 0x50, 0xbe, 0xa6, 0xd2, 0x02, 0xbe, 0x14, 0x05, 0x9d, 0xbd,
  0x6c, 0x38, 0x90, 0xbe, 0xe7, 0x25, 0x8b, 0x3d, 0x42, 0xca, 0x2d, 0xbc,
  0xc5, 0x28, 0x0e, 0xbe, 0xf8, 0xf0, 0xb6, 0xbc, 0x7d, 0xd0, 0x13, 0x3d,
  0x4e, 0xce, 0x4a, 0xbe, 0xc7, 0x69, 0x0f, 0x3d, 0xc2, 0x13, 0x21, 0x3d,
  0x4e, 0xcd, 0x48, 0xbe, 0xe9, 0x95, 0x8b, 0xbe, 0x00, 0x56, 0x1c, 0xbe,
  0x14, 0x72, 0x50, 0xbe, 0x5a, 0x7c, 0x09, 0x3e, 0x58, 0xd1, 0x6a, 0xbe,
  0x18, 0x61, 0xa8, 0xbd, 0x7e, 0xe1, 0x1f, 0xbd, 0xe5, 0xd8, 0x1e, 0xbe,
  0xd3, 0x3b, 0x4e, 0xbe, 0x14, 0x5c, 0x9d, 0xbd, 0x82, 0x23, 0x2a, 0xbe,
  0x99, 0xe9, 0xd1, 0x3c, 0x35, 0xf9, 0x3c, 0x3e, 0xb1, 0x84, 0x24, 0x3e,
  0x30, 0x05, 0x9c, 0x3d, 0xc9, 0x4e, 0x79, 0xbd, 0x68, 0x01, 0x39, 0x3e,
  0x46, 0x28, 0x67, 0x3e, 0xd4, 0x57, 0x16, 0xbe, 0x74, 0xba, 0xdd, 0x3d,
  0x09, 0x54, 0x3e, 0x3c, 0x5e, 0x40, 0x2d, 0xbd, 0xa2, 0x31, 0xe5, 0x3c,
  0x4d, 0x37, 0x17, 0x3e, 0xa3, 0x45, 0xc3, 0xbb, 0x0d, 0xb8, 0xf9, 0xbb,
  0xd8, 0xa8, 0xe0, 0x3c, 0x67, 0xe6, 0x83, 0x3b, 0x6a, 0xf8, 0x19, 0x3e,
  0x1d, 0x26, 0xdc, 0x3d, 0x83, 0x69, 0xc3, 0xbe, 0xa4, 0x2f, 0x07, 0xbe,
  0x6b, 0xdc, 0x35, 0xbc, 0xeb, 0x31, 0xba, 0xbd, 0x64, 0x46, 0x80, 0x3b,
  0xe8, 0x30, 0x28, 0x3d, 0x3a, 0x62, 0x2a, 0xbd, 0xb0, 0xa1, 0x63, 0xbe,
  0x31, 0xa2, 0x88, 0x3d, 0x10, 0xd6, 0xce, 0xbc, 0x90, 0xb6, 0xb5, 0x3d,
  0x03, 0x13, 0xb3, 0xbc, 0x4a, 0x12, 0x00, 0xbd, 0x28, 0x1e, 0x26, 0xbd,
  0x65, 0xfd, 0x33, 0xbd, 0xc7, 0x9d, 0xa4, 0x3e, 0x8f, 0xd0, 0xcf, 0xbe,
  0x25, 0xb2, 0xc1, 0xbd, 0xb2, 0x86, 0xa5, 0x3d, 0x31, 0xc7, 0x90, 0xbd,
  0x05, 0x75, 0x57, 0xbe, 0x8b, 0xe9, 0x60, 0xbc, 0x5e, 0x71, 0xda, 0xbd,
  0x36, 0xa1, 0x01, 0xbf, 0x28, 0xf2, 0xd7, 0xbd, 0x36, 0xf6, 0xd4, 0x3d,
  0x1b, 0xc1, 0xcc, 0xbc, 0x7d, 0x7d, 0x5b, 0xba, 0x75, 0xa9, 0xdd, 0xbd,
  0xc9, 0x8b, 0x12, 0xbd, 0x12, 0xeb, 0x36, 0x3e, 0x0c, 0xac, 0xc8, 0x3d,
  0x91, 0x6f, 0xd7, 0xbe, 0xbd, 0x65, 0x65, 0xbc, 0x9d, 0xd3, 0x57, 0x3d,
  0xb0, 0x9d, 0x86, 0xbd, 0xba, 0xea, 0xc7, 0xbd, 0xf0, 0x63, 0xc9, 0xbd,
  0xde, 0x5d, 0x1e, 0x3d, 0x37, 0x37, 0x48, 0xbf, 0x92, 0xc3, 0x44, 0xbd,
  0x08, 0x58, 0x0b, 0xbe, 0x77, 0x99, 0xa0, 0xbd, 0xd7, 0x85, 0x32, 0xbb,
  0x6f, 0xf8, 0x81, 0xbe, 0x26, 0xd3, 0x6c, 0xbd, 0x63, 0xf3, 0xca, 0x3d,
  0xde, 0x58, 0x24, 0x3e, 0x4c, 0xb9, 0xb3, 0xbe, 0x1b, 0x66, 0x2e, 0xbc,
  0x18, 0x17, 0xd4, 0x3d, 0x96, 0x86, 0x31, 0xbd, 0x91, 0x30, 0xb3, 0xbe,
  0xd6, 0x47, 0x89, 0xbd, 0x41, 0x0a, 0x18, 0xbd, 0x98, 0xfc, 0x63, 0xbe,
  0x59, 0xdb, 0x99, 0x3c, 0xb3, 0x79, 0xab, 0xbe, 0xc5, 0x92, 0x9c, 0xbd,
  0xed, 0xa9, 0xf7, 0xbc, 0x82, 0x08, 0xaf, 0x3c, 0x20, 0xe0, 0x4b, 0xbd,
  0xf0, 0xb5, 0xc2, 0x3d, 0x9d, 0x93, 0xf2, 0x3d, 0xb9, 0x96, 0x10, 0x3d,
  0xcb, 0x19, 0xd3, 0x3c, 0x3f, 0x52, 0x00, 0x3e, 0x45, 0x72, 0x83, 0xbc,
  0x17, 0x6a, 0xe5, 0xbd, 0xbc, 0xa7, 0x76, 0x3e, 0xb1, 0x25, 0xa2, 0xbc,
  0x9b, 0x9b, 0x21, 0xbe, 0xa3, 0xb9, 0x98, 0xbd, 0x05, 0xec, 0x00, 0x3e,
  0x6d, 0x04, 0xa2, 0x3b, 0xde, 0x29, 0xef, 0xbc, 0x39, 0x2f, 0x84, 0x3d,
  0xd7, 0x36, 0x9e, 0xbd, 0xf8, 0x14, 0xcd, 0xbc, 0xc1, 0x69, 0xae, 0x3d,
  0x04, 0x5f, 0x8a, 0x3d, 0xdb, 0xa1, 0x73, 0xbc, 0xe2, 0x04, 0x44, 0x3d,
  0xf7, 0x5f, 0x83, 0x3e, 0xe3, 0xea, 0x16, 0xbe, 0x86, 0x3e, 0xe8, 0x3d,
  0x51, 0x11, 0x54, 0xbd, 0x55, 0x84, 0x62, 0x3d, 0x0e, 0x3c, 0xee, 0x3c,
  0x78, 0x3e, 0x17, 0xbe, 0x65, 0x2a, 0x81, 0x3e, 0x55, 0x39, 0x65, 0xbb,
  0xc9, 0xe2, 0x72, 0x3e, 0x62, 0xfd, 0xff, 0xff, 0x10, 0x00, 0x00, 0x00,
  0x07, 0x00, 0x00, 0x00, 0x14, 0x00, 0x00, 0x00, 0x2c, 0x00, 0x00, 0x00,
  0x02, 0x00, 0x00, 0x00, 0x10, 0x00, 0x00, 0x00, 0x70, 0x00, 0x00, 0x00,
  0x17, 0x00, 0x00, 0x00, 0x73, 0x65, 0x71, 0x75, 0x65, 0x6e, 0x74, 0x69,
  0x61, 0x6c, 0x2f, 0x64, 0x65, 0x6e, 0x73, 0x65, 0x2f, 0x4d, 0x61, 0x74,
  0x4d, 0x75, 0x6c, 0x00, 0xcc, 0xfc, 0xff, 0xff, 0xd6, 0xfd, 0xff, 0xff,
  0x04, 0x00, 0x00, 0x00, 0x08, 0x00, 0x00, 0x00, 0xff, 0xff, 0xff, 0xff,
  0x70, 0x00, 0x00, 0x00, 0x00, 0x00, 0x0e, 0x00, 0x18, 0x00, 0x08, 0x00,
  0x07, 0x00, 0x0c, 0x00, 0x10, 0x00, 0x14, 0x00, 0x0e, 0x00, 0x00, 0x00,
  0x00, 0x00, 0x00, 0x02, 0x10, 0x00, 0x00, 0x00, 0x06, 0x00, 0x00, 0x00,
  0x10, 0x00, 0x00, 0x00, 0x2c, 0x00, 0x00, 0x00, 0x01, 0x00, 0x00, 0x00,
  0x02, 0x00, 0x00, 0x00, 0x18, 0x00, 0x00, 0x00, 0x73, 0x65, 0x71, 0x75,
  0x65, 0x6e, 0x74, 0x69, 0x61, 0x6c, 0x2f, 0x66, 0x6c, 0x61, 0x74, 0x74,
  0x65, 0x6e, 0x2f, 0x43, 0x6f, 0x6e, 0x73, 0x74, 0x00, 0x00, 0x00, 0x00,
  0x34, 0xfd, 0xff, 0xff, 0x3e, 0xfe, 0xff, 0xff, 0x04, 0x00, 0x00, 0x00,
  0x10, 0x00, 0x00, 0x00, 0x4a, 0x74, 0xb3, 0x3f, 0x29, 0x4c, 0x9b, 0xc0,
  0x54, 0xf3, 0xf1, 0xbf, 0xdf, 0x15, 0xf3, 0x3f, 0x26, 0xfe, 0xff, 0xff,
  0x10, 0x00, 0x00, 0x00, 0x05, 0x00, 0x00, 0x00, 0x10, 0x00, 0x00, 0x00,
  0x44, 0x00, 0x00, 0x00, 0x01, 0x00, 0x00, 0x00, 0x04, 0x00, 0x00, 0x00,
  0x32, 0x00, 0x00, 0x00, 0x73, 0x65, 0x71, 0x75, 0x65, 0x6e, 0x74, 0x69,
  0x61, 0x6c, 0x2f, 0x64, 0x65, 0x6e, 0x73, 0x65, 0x5f, 0x31, 0x2f, 0x42,
  0x69, 0x61, 0x73, 0x41, 0x64, 0x64, 0x2f, 0x52, 0x65, 0x61, 0x64, 0x56,
  0x61, 0x72, 0x69, 0x61, 0x62, 0x6c, 0x65, 0x4f, 0x70, 0x2f, 0x72, 0x65,
  0x73, 0x6f, 0x75, 0x72, 0x63, 0x65, 0x00, 0x00, 0xa8, 0xfd, 0xff, 0xff,
  0xb2, 0xfe, 0xff, 0xff, 0x04, 0x00, 0x00, 0x00, 0x40, 0x00, 0x00, 0x00,
  0xc4, 0x70, 0xcd, 0xbe, 0x3d, 0x76, 0x57, 0xbe, 0xed, 0x32, 0x25, 0x3b,
  0x05, 0xe3, 0x26, 0xbe, 0x7b, 0x7c, 0x81, 0x3a, 0x7b, 0xd0, 0xab, 0xbf,
  0x0c, 0xaf, 0xfb, 0xbd, 0x4c, 0xb8, 0x00, 0xc0, 0x51, 0xc5, 0xd2, 0x3b,
  0x12, 0xbe, 0x9d, 0x40, 0x0e, 0x30, 0x45, 0xbf, 0x33, 0xb4, 0x43, 0xbe,
  0xc8, 0xef, 0x9a, 0xbb, 0x2e, 0xb3, 0xdb, 0xbd, 0xe6, 0x09, 0x02, 0xbe,
  0x03, 0xea, 0x1e, 0xc0, 0xca, 0xfe, 0xff, 0xff, 0x10, 0x00, 0x00, 0x00,
  0x04, 0x00, 0x00, 0x00, 0x10, 0x00, 0x00, 0x00, 0x44, 0x00, 0x00, 0x00,
  0x01, 0x00, 0x00, 0x00, 0x10, 0x00, 0x00, 0x00, 0x30, 0x00, 0x00, 0x00,
  0x73, 0x65, 0x71, 0x75, 0x65, 0x6e, 0x74, 0x69, 0x61, 0x6c, 0x2f, 0x64,
  0x65, 0x6e, 0x73, 0x65, 0x2f, 0x42, 0x69, 0x61, 0x73, 0x41, 0x64, 0x64,
  0x2f, 0x52, 0x65, 0x61, 0x64, 0x56, 0x61, 0x72, 0x69, 0x61, 0x62, 0x6c,
  0x65, 0x4f, 0x70, 0x2f, 0x72, 0x65, 0x73, 0x6f, 0x75, 0x72, 0x63, 0x65,
  0x00, 0x00, 0x00, 0x00, 0x4c, 0xfe, 0xff, 0xff, 0x56, 0xff, 0xff, 0xff,
  0x04, 0x00, 0x00, 0x00, 0x40, 0x00, 0x00, 0x00, 0x12, 0xa6, 0xe9, 0xbd,
  0xe2, 0xf6, 0x75, 0xbf, 0xa2, 0x6d, 0xb4, 0xbf, 0x1f, 0x34, 0x8c, 0xbe,
  0x90, 0x5a, 0xf6, 0xbc, 0xff, 0x0c, 0x55, 0xbf, 0xc0, 0x2f, 0x58, 0xbf,
  0xef, 0x30, 0x4b, 0xbe, 0xe1, 0xf9, 0xaf, 0xbf, 0x81, 0x94, 0x97, 0xbf,
  0xaf, 0xa1, 0x80, 0xbe, 0x1a, 0xc3, 0xa6, 0xbf, 0x69, 0xbf, 0xd0, 0xbf,
  0x3f, 0xc7, 0x00, 0xbf, 0x0a, 0x7e, 0xd6, 0xbe, 0x3a, 0x55, 0xde, 0xbc,
  0x6e, 0xff, 0xff, 0xff, 0x10, 0x00, 0x00, 0x00, 0x03, 0x00, 0x00, 0x00,
  0x10, 0x00, 0x00, 0x00, 0x48, 0x00, 0x00, 0x00, 0x01, 0x00, 0x00, 0x00,
  0x10, 0x00, 0x00, 0x00, 0x33, 0x00, 0x00, 0x00, 0x73, 0x65, 0x71, 0x75,
  0x65, 0x6e, 0x74, 0x69, 0x61, 0x6c, 0x2f, 0x63, 0x6f, 0x6e, 0x76, 0x32,
  0x64, 0x5f, 0x31, 0x2f, 0x42, 0x69, 0x61, 0x73, 0x41, 0x64, 0x64, 0x2f,
  0x52, 0x65, 0x61, 0x64, 0x56, 0x61, 0x72, 0x69, 0x61, 0x62, 0x6c, 0x65,
  0x4f, 0x70, 0x2f, 0x72, 0x65, 0x73, 0x6f, 0x75, 0x72, 0x63, 0x65, 0x00,
  0x04, 0x00, 0x06, 0x00, 0x04, 0x00, 0x00, 0x00, 0x00, 0x00, 0x06, 0x00,
  0x08, 0x00, 0x04, 0x00, 0x06, 0x00, 0x00, 0x00, 0x04, 0x00, 0x00, 0x00,
  0x20, 0x00, 0x00, 0x00, 0xc4, 0x21, 0x0a, 0xbf, 0x49, 0x46, 0x3f, 0xc0,
  0x12, 0x7b, 0xc3, 0xbf, 0x70, 0xc4, 0xa1, 0xbf, 0x66, 0x55, 0x08, 0xc0,
  0x5a, 0x46, 0xaf, 0xbf, 0x90, 0xb8, 0xbe, 0xbf, 0xf0, 0xe1, 0x1e, 0xc0,
  0x00, 0x00, 0x0e, 0x00, 0x14, 0x00, 0x04, 0x00, 0x00, 0x00, 0x08, 0x00,
  0x0c, 0x00, 0x10, 0x00, 0x0e, 0x00, 0x00, 0x00, 0x10, 0x00, 0x00, 0x00,
  0x02, 0x00, 0x00, 0x00, 0x10, 0x00, 0x00, 0x00, 0x44, 0x00, 0x00, 0x00,
  0x01, 0x00, 0x00, 0x00, 0x08, 0x00, 0x00, 0x00, 0x31, 0x00, 0x00, 0x00,
  0x73, 0x65, 0x71, 0x75, 0x65, 0x6e, 0x74, 0x69, 0x61, 0x6c, 0x2f, 0x63,
  0x6f, 0x6e, 0x76, 0x32, 0x64, 0x2f, 0x42, 0x69, 0x61, 0x73, 0x41, 0x64,
  0x64, 0x2f, 0x52, 0x65, 0x61, 0x64, 0x56, 0x61, 0x72, 0x69, 0x61, 0x62,
  0x6c, 0x65, 0x4f, 0x70, 0x2f, 0x72, 0x65, 0x73, 0x6f, 0x75, 0x72, 0x63,
  0x65, 0x00, 0x00, 0x00, 0x90, 0xff, 0xff, 0xff, 0x14, 0x00, 0x18, 0x00,
  0x04, 0x00, 0x00, 0x00, 0x08, 0x00, 0x0c, 0x00, 0x10, 0x00, 0x00, 0x00,
  0x00, 0x00, 0x14, 0x00, 0x14, 0x00, 0x00, 0x00, 0x14, 0x00, 0x00, 0x00,
  0x01, 0x00, 0x00, 0x00, 0x20, 0x00, 0x00, 0x00, 0x44, 0x00, 0x00, 0x00,
  0x2c, 0x00, 0x00, 0x00, 0x04, 0x00, 0x00, 0x00, 0x01, 0x00, 0x00, 0x00,
  0x40, 0x00, 0x00, 0x00, 0x03, 0x00, 0x00, 0x00, 0x01, 0x00, 0x00, 0x00,
  0x0c, 0x00, 0x00, 0x00, 0x63, 0x6f, 0x6e, 0x76, 0x32, 0x64, 0x5f, 0x69,
  0x6e, 0x70, 0x75, 0x74, 0x00, 0x00, 0x00, 0x00, 0x04, 0x00, 0x00, 0x00,
  0xff, 0xff, 0xff, 0xff, 0x40, 0x00, 0x00, 0x00, 0x03, 0x00, 0x00, 0x00,
  0x01, 0x00, 0x00, 0x00, 0xfc, 0xff, 0xff, 0xff, 0x04, 0x00, 0x04, 0x00,
  0x04, 0x00, 0x00, 0x00// Paste the data of the char array in `src/model.cc` here
};

unsigned int model_tflite_len = 13120;// Fill the int in `src/model.cc` here